{
  "version": "1.0",
  "truncation": null,
  "padding": null,
  "added_tokens": [
    {
      "id": 0,
      "content": "[UNK]",
      "single_word": false,
      "lstrip": false,
      "rstrip": false,
      "normalized": false,
      "special": true
    },
    {
      "id": 1,
      "content": "[PAD]",
      "single_word": false,
      "lstrip": false,
      "rstrip": false,
      "normalized": false,
      "special": true
    },
    {
      "id": 2,
      "content": "[CLS]",
      "single_word": false,
      "lstrip": false,
      "rstrip": false,
      "normalized": false,
      "special": true
    },
    {
      "id": 3,
      "content": "[SEP]",
      "single_word": false,
      "lstrip": false,
      "rstrip": false,
      "normalized": false,
      "special": true
    },
    {
      "id": 4,
      "content": "[MASK]",
      "single_word": false,
      "lstrip": false,
      "rstrip": false,
      "normalized": false,
      "special": true
    },
    {
      "id": 5181,
      "content": "[event_fork]",
      "single_word": false,
      "lstrip": false,
      "rstrip": false,
      "normalized": true,
      "special": false
    },
    {
      "id": 5182,
      "content": "[event_mprotect]",
      "single_word": false,
      "lstrip": false,
      "rstrip": false,
      "normalized": true,
      "special": false
    },
    {
      "id": 5183,
      "content": "[event_update]",
      "single_word": false,
      "lstrip": false,
      "rstrip": false,
      "normalized": true,
      "special": false
    },
    {
      "id": 5184,
      "content": "[event_mmap]",
      "single_word": false,
      "lstrip": false,
      "rstrip": false,
      "normalized": true,
      "special": false
    },
    {
      "id": 5185,
      "content": "[event_loadlibrary]",
      "single_word": false,
      "lstrip": false,
      "rstrip": false,
      "normalized": true,
      "special": false
    },
    {
      "id": 5186,
      "content": "[event_read]",
      "single_word": false,
      "lstrip": false,
      "rstrip": false,
      "normalized": true,
      "special": false
    },
    {
      "id": 5187,
      "content": "[event_modify_file_attributes]",
      "single_word": false,
      "lstrip": false,
      "rstrip": false,
      "normalized": true,
      "special": false
    },
    {
      "id": 5188,
      "content": "[event_exit]",
      "single_word": false,
      "lstrip": false,
      "rstrip": false,
      "normalized": true,
      "special": false
    },
    {
      "id": 5189,
      "content": "[event_clone]",
      "single_word": false,
      "lstrip": false,
      "rstrip": false,
      "normalized": true,
      "special": false
    },
    {
      "id": 5190,
      "content": "[event_truncate]",
      "single_word": false,
      "lstrip": false,
      "rstrip": false,
      "normalized": true,
      "special": false
    },
    {
      "id": 5191,
      "content": "[event_execute]",
      "single_word": false,
      "lstrip": false,
      "rstrip": false,
      "normalized": true,
      "special": false
    },
    {
      "id": 5192,
      "content": "[event_sendmsg]",
      "single_word": false,
      "lstrip": false,
      "rstrip": false,
      "normalized": true,
      "special": false
    },
    {
      "id": 5193,
      "content": "[event_link]",
      "single_word": false,
      "lstrip": false,
      "rstrip": false,
      "normalized": true,
      "special": false
    },
    {
      "id": 5194,
      "content": "[event_unlink]",
      "single_word": false,
      "lstrip": false,
      "rstrip": false,
      "normalized": true,
      "special": false
    },
    {
      "id": 5195,
      "content": "[event_unit]",
      "single_word": false,
      "lstrip": false,
      "rstrip": false,
      "normalized": true,
      "special": false
    },
    {
      "id": 5196,
      "content": "[event_recvmsg]",
      "single_word": false,
      "lstrip": false,
      "rstrip": false,
      "normalized": true,
      "special": false
    },
    {
      "id": 5197,
      "content": "[event_change_principal]",
      "single_word": false,
      "lstrip": false,
      "rstrip": false,
      "normalized": true,
      "special": false
    },
    {
      "id": 5198,
      "content": "[event_accept]",
      "single_word": false,
      "lstrip": false,
      "rstrip": false,
      "normalized": true,
      "special": false
    },
    {
      "id": 5199,
      "content": "[event_connect]",
      "single_word": false,
      "lstrip": false,
      "rstrip": false,
      "normalized": true,
      "special": false
    },
    {
      "id": 5200,
      "content": "[event_write]",
      "single_word": false,
      "lstrip": false,
      "rstrip": false,
      "normalized": true,
      "special": false
    },
    {
      "id": 5201,
      "content": "[event_create_object]",
      "single_word": false,
      "lstrip": false,
      "rstrip": false,
      "normalized": true,
      "special": false
    },
    {
      "id": 5202,
      "content": "[event_open]",
      "single_word": false,
      "lstrip": false,
      "rstrip": false,
      "normalized": true,
      "special": false
    },
    {
      "id": 5203,
      "content": "[event_rename]",
      "single_word": false,
      "lstrip": false,
      "rstrip": false,
      "normalized": true,
      "special": false
    },
    {
      "id": 5204,
      "content": "[event_close]",
      "single_word": false,
      "lstrip": false,
      "rstrip": false,
      "normalized": true,
      "special": false
    }
  ],
  "normalizer": {
    "type": "BertNormalizer",
    "clean_text": true,
    "handle_chinese_chars": true,
    "strip_accents": null,
    "lowercase": true
  },
  "pre_tokenizer": {
    "type": "BertPreTokenizer"
  },
  "post_processor": null,
  "decoder": {
    "type": "WordPiece",
    "prefix": "##",
    "cleanup": true
  },
  "model": {
    "type": "WordPiece",
    "unk_token": "[UNK]",
    "continuing_subword_prefix": "##",
    "max_input_chars_per_word": 100,
    "vocab": {
      "[UNK]": 0,
      "[PAD]": 1,
      "[CLS]": 2,
      "[SEP]": 3,
      "[MASK]": 4,
      "!": 5,
      "%": 6,
      "&": 7,
      "(": 8,
      "+": 9,
      "-": 10,
      ".": 11,
      "/": 12,
      "0": 13,
      "1": 14,
      "2": 15,
      "3": 16,
      "4": 17,
      "5": 18,
      "6": 19,
      "7": 20,
      "8": 21,
      "9": 22,
      ":": 23,
      "=": 24,
      "@": 25,
      "\\": 26,
      "_": 27,
      "a": 28,
      "b": 29,
      "c": 30,
      "d": 31,
      "e": 32,
      "f": 33,
      "g": 34,
      "h": 35,
      "i": 36,
      "j": 37,
      "k": 38,
      "l": 39,
      "m": 40,
      "n": 41,
      "o": 42,
      "p": 43,
      "q": 44,
      "r": 45,
      "s": 46,
      "t": 47,
      "u": 48,
      "v": 49,
      "w": 50,
      "x": 51,
      "y": 52,
      "z": 53,
      "|": 54,
      "##n": 55,
      "##t": 56,
      "##e": 57,
      "##r": 58,
      "##f": 59,
      "##a": 60,
      "##c": 61,
      "##s": 62,
      "##d": 63,
      "##9": 64,
      "##5": 65,
      "##1": 66,
      "##3": 67,
      "##6": 68,
      "##4": 69,
      "##0": 70,
      "##2": 71,
      "##b": 72,
      "##8": 73,
      "##7": 74,
      "##m": 75,
      "##o": 76,
      "##l": 77,
      "##p": 78,
      "##z": 79,
      "##h": 80,
      "##g": 81,
      "##i": 82,
      "##y": 83,
      "##u": 84,
      "##x": 85,
      "##v": 86,
      "##q": 87,
      "##k": 88,
      "##w": 89,
      "##j": 90,
      "##e2": 91,
      "##e28": 92,
      "##ef": 93,
      "##in": 94,
      "##er": 95,
      "##e280": 96,
      "us": 97,
      "usr": 98,
      "##00": 99,
      "##oc": 100,
      "##bf": 101,
      "##ir": 102,
      "##es": 103,
      "##bfb": 104,
      "##38": 105,
      "##ox": 106,
      "##59": 107,
      "fir": 108,
      "##efox": 109,
      "firefox": 110,
      "##al": 111,
      "##e2808": 112,
      "##on": 113,
      "##e38": 114,
      "loc": 115,
      "local": 116,
      "54": 117,
      "13": 118,
      "##e2859": 119,
      "##ea": 120,
      "##20": 121,
      "##om": 122,
      "##at": 123,
      "##e2bfb": 124,
      "lin": 125,
      "##33": 126,
      "10": 127,
      "##ux": 128,
      "linux": 129,
      "##en": 130,
      "14": 131,
      "##rc": 132,
      "11": 133,
      "##efb": 134,
      "##e280a": 135,
      "##ers": 136,
      "##ar": 137,
      "21": 138,
      "##est": 139,
      "##89": 140,
      "##73": 141,
      "##ic": 142,
      "test": 143,
      "src": 144,
      "##or": 145,
      "in": 146,
      "##86": 147,
      "12": 148,
      "19": 149,
      "##ib": 150,
      "##ome": 151,
      "con": 152,
      "##31": 153,
      "##65": 154,
      "##ead": 155,
      "##il": 156,
      "24": 157,
      "22": 158,
      "head": 159,
      "##ac": 160,
      "headers": 161,
      "##st": 162,
      "lib": 163,
      "sh": 164,
      "mo": 165,
      "##fi": 166,
      "##c8": 167,
      "##64": 168,
      "64": 169,
      "##ro": 170,
      "##et": 171,
      "25": 172,
      "##de": 173,
      "##ate": 174,
      "##ol": 175,
      "##6f": 176,
      "23": 177,
      "20": 178,
      "##ri": 179,
      "gn": 180,
      "##7c": 181,
      "##lu": 182,
      "15": 183,
      "100": 184,
      "##e380": 185,
      "x86": 186,
      "##efbfb": 187,
      "##ing": 188,
      "gnu": 189,
      "##tp": 190,
      "##ul": 191,
      "##313": 192,
      "pc": 193,
      "##ach": 194,
      "##em": 195,
      "##pd": 196,
      "##clu": 197,
      "bin": 198,
      "inclu": 199,
      "include": 200,
      "ob": 201,
      "##18": 202,
      "obj": 203,
      "17": 204,
      "cach": 205,
      "##eb": 206,
      "##cb": 207,
      "##ab": 208,
      "##c2": 209,
      "##d8": 210,
      "##32": 211,
      "##ot": 212,
      "143": 213,
      "##roc": 214,
      "##eric": 215,
      "gen": 216,
      "de": 217,
      "##dc8": 218,
      "generic": 219,
      "home": 220,
      "##ed": 221,
      "##for": 222,
      "ad": 223,
      "##ad": 224,
      "##ist": 225,
      "##el": 226,
      "##as": 227,
      "##fig": 228,
      "web": 229,
      "config": 230,
      "sy": 231,
      "##min": 232,
      "tests": 233,
      "ch": 234,
      "##ec": 235,
      "##19": 236,
      "##ent": 237,
      "shar": 238,
      "dev": 239,
      "upd": 240,
      "##99": 241,
      "##ool": 242,
      "ht": 243,
      "##ref": 244,
      "admin": 245,
      "##7b": 246,
      "moz": 247,
      "share": 248,
      "##refs": 249,
      "##a0": 250,
      "##3b": 251,
      "##ws": 252,
      "update": 253,
      "dist": 254,
      "120": 255,
      "proc": 256,
      "##74": 257,
      "##rows": 258,
      "##7c313": 259,
      "##c2b": 260,
      "##2e": 261,
      "##2f": 262,
      "##63": 263,
      "##mp": 264,
      "##it": 265,
      "st": 266,
      "##la": 267,
      "sys": 268,
      "142": 269,
      "##rowser": 270,
      "var": 271,
      "##form": 272,
      "def": 273,
      "pl": 274,
      "##an": 275,
      "##6e": 276,
      "not": 277,
      "##61": 278,
      "plat": 279,
      "##78": 280,
      "noti": 281,
      "platform": 282,
      "com": 283,
      "##aul": 284,
      "##3a": 285,
      "##illa": 286,
      "mozilla": 287,
      "defaul": 288,
      "default": 289,
      "net": 290,
      "##fier": 291,
      "notifier": 292,
      "##94": 293,
      "testing": 294,
      "ap": 295,
      "##2d": 296,
      "##ion": 297,
      "##000": 298,
      "##76": 299,
      "16": 300,
      "##90": 301,
      "##30": 302,
      "##720": 303,
      "cache": 304,
      "##2f2": 305,
      "50": 306,
      "##ag": 307,
      "##95": 308,
      "##un": 309,
      "wy": 310,
      "##o2f2": 311,
      "##id": 312,
      "##6f7": 313,
      "##d8o2f2": 314,
      "http": 315,
      "wyd8o2f2": 316,
      "dri": 317,
      "tmp": 318,
      "##d6": 319,
      "104": 320,
      "cont": 321,
      "chr": 322,
      "##783": 323,
      "driv": 324,
      "tr": 325,
      "##eae": 326,
      "##abb": 327,
      "drivers": 328,
      "5000": 329,
      "600": 330,
      "date": 331,
      "rm": 332,
      "##eefb": 333,
      "##e18": 334,
      "##fe280": 335,
      "##a7b": 336,
      "##5e2808": 337,
      "##8ad": 338,
      "##72": 339,
      "##prefs": 340,
      "##e2abb": 341,
      "##e2a7b": 342,
      "##e2818": 343,
      "##e2819": 344,
      "##bfefb": 345,
      "##e38f": 346,
      "##e3889": 347,
      "##efb89": 348,
      "##6465": 349,
      "10000": 350,
      "##e3808": 351,
      "cache2": 352,
      "##7c3139": 353,
      "##tc": 354,
      "##6f6e": 355,
      "##2d20": 356,
      "6e": 357,
      "##7365": 358,
      "##6473": 359,
      "##636f6e": 360,
      "##7202d20": 361,
      "##6f77202d20": 362,
      "6e6f77202d20": 363,
      "##7365636f6e": 364,
      "##7365636f6e6473": 365,
      "##am": 366,
      "arc": 367,
      "browser": 368,
      "##um": 369,
      "##yp": 370,
      "##75": 371,
      "arch": 372,
      "##th": 373,
      "##ch": 374,
      "##ss": 375,
      "##gin": 376,
      "##con": 377,
      "##207365636f6e6473": 378,
      "##ools": 379,
      "##rg": 380,
      "mod": 381,
      "th": 382,
      "##ern": 383,
      "##omed": 384,
      "modul": 385,
      "do": 386,
      "org": 387,
      "##ml": 388,
      "##ild": 389,
      "##ras": 390,
      "##85": 391,
      "##ou": 392,
      "##le": 393,
      "##pt": 394,
      "ref": 395,
      "##re": 396,
      "##6c": 397,
      "##ps": 398,
      "##ia": 399,
      "##ens": 400,
      "##ame": 401,
      "18": 402,
      "doc": 403,
      "ex": 404,
      "im": 405,
      "mi": 406,
      "##ty": 407,
      "##6d": 408,
      "##ba": 409,
      "doomed": 410,
      "js": 411,
      "##rer": 412,
      "##373": 413,
      "##omi": 414,
      "42": 415,
      "etc": 416,
      "ori": 417,
      "##9a": 418,
      "##39": 419,
      "##66": 420,
      "##errer": 421,
      "##eme": 422,
      "##2e30": 423,
      "str": 424,
      "chromi": 425,
      "referrer": 426,
      "origin": 427,
      "chromium": 428,
      "60": 429,
      "eras": 430,
      "med": 431,
      "py": 432,
      "ww": 433,
      "##da": 434,
      "##b1": 435,
      "##bo": 436,
      "shm": 437,
      "html": 438,
      "eraseme": 439,
      "media": 440,
      "www": 441,
      "28": 442,
      "40": 443,
      "48": 444,
      "55": 445,
      "70": 446,
      "##ce": 447,
      "##9f": 448,
      "##li": 449,
      "##ue": 450,
      "##3332": 451,
      "128": 452,
      "255": 453,
      "256": 454,
      "##7465": 455,
      "26": 456,
      "33": 457,
      "30": 458,
      "32": 459,
      "44": 460,
      "91": 461,
      "90": 462,
      "98": 463,
      "97": 464,
      "dom": 465,
      "##26": 466,
      "215": 467,
      "##ices": 468,
      "225": 469,
      "257": 470,
      "152": 471,
      "##6d6f": 472,
      "string": 473,
      "165": 474,
      "164": 475,
      "200": 476,
      "35": 477,
      "36": 478,
      "34": 479,
      "45": 480,
      "41": 481,
      "43": 482,
      "46": 483,
      "59": 484,
      "51": 485,
      "75": 486,
      "74": 487,
      "80": 488,
      "82": 489,
      "99": 490,
      "95": 491,
      "kern": 492,
      "tab": 493,
      "##e19": 494,
      "##a4": 495,
      "##b6": 496,
      "##us": 497,
      "135": 498,
      "##ea0": 499,
      "101": 500,
      "102": 501,
      "##entp": 502,
      "117": 503,
      "212": 504,
      "124": 505,
      "122": 506,
      "195": 507,
      "245": 508,
      "243": 509,
      "221": 510,
      "228": 511,
      "253": 512,
      "239": 513,
      "235": 514,
      "236": 515,
      "234": 516,
      "205": 517,
      "207": 518,
      "171": 519,
      "172": 520,
      "##cb8": 521,
      "##7b4": 522,
      "##617465": 523,
      "appd": 524,
      "160": 525,
      "10485": 526,
      "img": 527,
      "##da1": 528,
      "kernel": 529,
      "1048576": 530,
      "159": 531,
      "173": 532,
      "186": 533,
      "27": 534,
      "238": 535,
      "220": 536,
      "233": 537,
      "39": 538,
      "38": 539,
      "37": 540,
      "333": 541,
      "49": 542,
      "47": 543,
      "400": 544,
      "53": 545,
      "56": 546,
      "52": 547,
      "58": 548,
      "57": 549,
      "65": 550,
      "61": 551,
      "63": 552,
      "66": 553,
      "62": 554,
      "67": 555,
      "79": 556,
      "71": 557,
      "85": 558,
      "81": 559,
      "86": 560,
      "84": 561,
      "87": 562,
      "93": 563,
      "96": 564,
      "94": 565,
      "92": 566,
      "bool": 567,
      "en": 568,
      "is": 569,
      "##ee2808": 570,
      "##ee38": 571,
      "##ee2859": 572,
      "##ee280a": 573,
      "##e89": 574,
      "##fe28": 575,
      "##fe2859": 576,
      "##fefb": 577,
      "##fe18": 578,
      "##fe38f": 579,
      "##ae2808": 580,
      "##ae2859": 581,
      "##ae2bfb": 582,
      "##a33": 583,
      "##ae280a": 584,
      "##aefbfb": 585,
      "##a373": 586,
      "##ce2859": 587,
      "##ce280a": 588,
      "##cefbfb": 589,
      "##ccb": 590,
      "##cc2b": 591,
      "##de2859": 592,
      "##de2bfb": 593,
      "##defb": 594,
      "##de280a": 595,
      "##dc2b": 596,
      "##de3889": 597,
      "##d7c3139": 598,
      "##d7b4": 599,
      "##9e280": 600,
      "##9e2808": 601,
      "##9e2859": 602,
      "##9e2bfb": 603,
      "##9e280a": 604,
      "##9efbfb": 605,
      "##9e89": 606,
      "##5e28": 607,
      "##5e2859": 608,
      "##5e2bfb": 609,
      "##5efb": 610,
      "##5a0": 611,
      "##5a4": 612,
      "##1e2808": 613,
      "##1e2bfb": 614,
      "##1dc8": 615,
      "##1e2818": 616,
      "##3e2808": 617,
      "##3e38": 618,
      "##3e2859": 619,
      "##3e2bfb": 620,
      "##3dc8": 621,
      "##6e2808": 622,
      "##6e2859": 623,
      "##6e2bfb": 624,
      "##6e2a7b": 625,
      "##4e2808": 626,
      "##4e2859": 627,
      "##4e2bfb": 628,
      "##4e280a": 629,
      "##43a": 630,
      "##4e18": 631,
      "##4e2819": 632,
      "##4efb89": 633,
      "##0e2808": 634,
      "##0e2bfb": 635,
      "##0e3808": 636,
      "##2e2808": 637,
      "##2e2bfb": 638,
      "##2e380": 639,
      "##2dc8": 640,
      "##2a0": 641,
      "##2e2819": 642,
      "##be2808": 643,
      "##be2859": 644,
      "##be280a": 645,
      "##befbfb": 646,
      "##browser": 647,
      "##b94": 648,
      "##be2abb": 649,
      "##bbfefb": 650,
      "##b6465": 651,
      "##be3808": 652,
      "##b9e280": 653,
      "##b3e38": 654,
      "##8e2808": 655,
      "##8e2859": 656,
      "##8e2bfb": 657,
      "##8e280a": 658,
      "##8e2abb": 659,
      "##8bfefb": 660,
      "##8b6": 661,
      "##7e2808": 662,
      "##7e2859": 663,
      "##7e2bfb": 664,
      "##7e280a": 665,
      "##e295": 666,
      "##e28eae": 667,
      "##e28099": 668,
      "##383b": 669,
      "##59fe18": 670,
      "##e38ea": 671,
      "##e385a4": 672,
      "131": 673,
      "133": 674,
      "136": 675,
      "134": 676,
      "132": 677,
      "##ea9e89": 678,
      "##20c2": 679,
      "##333b": 680,
      "109": 681,
      "105": 682,
      "103": 683,
      "106": 684,
      "108": 685,
      "107": 686,
      "149": 687,
      "141": 688,
      "146": 689,
      "147": 690,
      "119": 691,
      "115": 692,
      "111": 693,
      "113": 694,
      "116": 695,
      "114": 696,
      "110": 697,
      "112": 698,
      "118": 699,
      "##efbea0": 700,
      "##e280a4e280a": 701,
      "219": 702,
      "211": 703,
      "213": 704,
      "216": 705,
      "214": 706,
      "210": 707,
      "217": 708,
      "##89d8": 709,
      "##89d6": 710,
      "##895e28": 711,
      "##7343a": 712,
      "intp": 713,
      "##86e38f": 714,
      "125": 715,
      "123": 716,
      "126": 717,
      "127": 718,
      "199": 719,
      "193": 720,
      "196": 721,
      "194": 722,
      "198": 723,
      "197": 724,
      "##312e30": 725,
      "241": 726,
      "240": 727,
      "242": 728,
      "226": 729,
      "224": 730,
      "222": 731,
      "##c8eefb": 732,
      "##c8fefb": 733,
      "##eta": 734,
      "254": 735,
      "237": 736,
      "204": 737,
      "202": 738,
      "##7ccb8": 739,
      "151": 740,
      "154": 741,
      "158": 742,
      "157": 743,
      "1000": 744,
      "##e38095": 745,
      "##e380b3e38": 746,
      "##efbfb9efbfb": 747,
      "##313a33": 748,
      "175": 749,
      "170": 750,
      "##cb90": 751,
      "##cb5e2808": 752,
      "##d889d8": 753,
      "##323a": 754,
      "##dc81dc8": 755,
      "##forbrowser": 756,
      "##adb94": 757,
      "child": 758,
      "##ec783": 759,
      "##99eefb": 760,
      "##99defb": 761,
      "##a0c2b": 762,
      "##3b20c2": 763,
      "##747c313": 764,
      "##6175": 765,
      "##94e38095": 766,
      "##768": 767,
      "162": 768,
      "##90e28099": 769,
      "##d689d6": 770,
      "contentp": 771,
      "##783d7b4": 772,
      "true": 773,
      "##eaee38ea": 774,
      "60000": 775,
      "##fe280b9e280": 776,
      "##fe28090e28099": 777,
      "##5e28086e2808": 778,
      "##8ad9a": 779,
      "##8ad783d7b4": 780,
      "##72617465": 781,
      "##e2a7b6e2a7b": 782,
      "##e28181e2818": 783,
      "##e3889de3889": 784,
      "##efb894efb89": 785,
      "##646572617465": 786,
      "##7c3139313a33": 787,
      "modules": 788,
      "##6c747c313": 789,
      "##bae28181e2818": 790,
      "##666175": 791,
      "##b1e2a7b6e2a7b": 792,
      "##9fea9e89": 793,
      "##33323b20c2": 794,
      "32768": 795,
      "##6d6f646572617465": 796,
      "stringprefs": 797,
      "##e19cb5e2808": 798,
      "appdir": 799,
      "##da1efbea0": 800,
      "333a373": 801,
      "boolprefs": 802,
      "isforbrowser": 803,
      "##ee2808fe28090e28099": 804,
      "##ee38eaee38ea": 805,
      "##ee2859fe28": 806,
      "##ee280afe280b9e280": 807,
      "##fe28593e2859": 808,
      "##fe38f86e38f": 809,
      "##ae2808be2808": 810,
      "##ae2859be2859": 811,
      "##ae2bfbbe3808": 812,
      "##ae280abe280a": 813,
      "##aefbfbbefbfb": 814,
      "##ce2859de2859": 815,
      "##ce280ade280a": 816,
      "##cefbfbd7c3139": 817,
      "##ccb7ccb8": 818,
      "##cc2bdc2b": 819,
      "##de2bfb0e2bfb": 820,
      "##9e2808ae2808be2808": 821,
      "##9e2859ae2859be2859": 822,
      "##9e2bfbae2bfbbe3808": 823,
      "##9e280aae280abe280a": 824,
      "##5e28596e2859": 825,
      "##5e2bfb6e2bfb": 826,
      "##5efb8bfefb": 827,
      "##5a0e19cb5e2808": 828,
      "##1e28082e2808": 829,
      "##1e2bfb2e2bfb": 830,
      "##3e28084e2808": 831,
      "##3e2bfb4e2bfb": 832,
      "##3dc84e18": 833,
      "##4e28595e28596e2859": 834,
      "##4e28192e2819": 835,
      "##0e28081e28082e2808": 836,
      "##0e38082e380": 837,
      "##2dc83dc84e18": 838,
      "##2a0e385a4": 839,
      "##be2abbde2bfb0e2bfb": 840,
      "##bbfefbc8eefb": 841,
      "##b6465666175": 842,
      "##8e28089e2808ae2808be2808": 843,
      "##8e28599e2859ae2859be2859": 844,
      "##8e2bfb9e2bfbae2bfbbe3808": 845,
      "##8e280a9e280aae280abe280a": 846,
      "##8e2abbbe2abbde2bfb0e2bfb": 847,
      "##8b6e28eae": 848,
      "##7e28088e28089e2808ae2808be2808": 849,
      "##7e28598e28599e2859ae2859be2859": 850,
      "##7e2bfb8e2bfb9e2bfbae2bfbbe3808": 851,
      "##7e280a8e280a9e280aae280abe280a": 852,
      "##e295b1e2a7b6e2a7b": 853,
      "##383b6d6f646572617465": 854,
      "##59fe185a0e19cb5e2808": 855,
      "##333b312e30": 856,
      "##e280a4e280a7e280a8e280a9e280aae280abe280a": 857,
      "##895e288b6e28eae": 858,
      "##7343a333b312e30": 859,
      "intprefs": 860,
      "##c8fefbda1efbea0": 861,
      "##e380b3e382a0e385a4": 862,
      "##efbfb9efbfbaefbfbbefbfb": 863,
      "##cb90ccb7ccb8": 864,
      "##d889d88ad9a": 865,
      "##323a383b6d6f646572617465": 866,
      "##dc81dc82dc83dc84e18": 867,
      "##adb94dc81dc82dc83dc84e18": 868,
      "childid": 869,
      "##ec783cb90ccb7ccb8": 870,
      "##99eefbbbfefbc8eefb": 871,
      "##99defb99eefbbbfefbc8eefb": 872,
      "##a0c2bcc2bdc2b": 873,
      "##94e38095e380b3e382a0e385a4": 874,
      "##d689d68ad783d7b4": 875,
      "contentproc": 876,
      "##5e28086e28087e28088e28089e2808ae2808be2808": 877,
      "##e3889de3889ee38eaee38ea": 878,
      "##efb894efb895efb8bfefb": 879,
      "##7c3139313a3333323b20c2": 880,
      "##6c747c3137343a333b312e30": 881,
      "##bae28181e28184e28192e2819": 882,
      "##9fea9e89efb894efb895efb8bfefb": 883,
      "333a373b6465666175": 884,
      "##ee2808fe28090e28099e280a4e280a7e280a8e280a9e280aae280abe280a": 885,
      "##ee2859fe28895e288b6e28eae": 886,
      "##ee280afe280b9e280bae28181e28184e28192e2819": 887,
      "##fe28593e28594e28595e28596e2859": 888,
      "##fe38f86e38f9fea9e89efb894efb895efb8bfefb": 889,
      "##ce2859de2859ee2859fe28895e288b6e28eae": 890,
      "##ce280ade280aee280afe280b9e280bae28181e28184e28192e2819": 891,
      "##cefbfbd7c3139323a383b6d6f646572617465": 892,
      "##5e2bfb6e2bfb7e2bfb8e2bfb9e2bfbae2bfbbe3808": 893,
      "##1e2bfb2e2bfb3e2bfb4e2bfb": 894,
      "##3e28084e28085e28086e28087e28088e28089e2808ae2808be2808": 895,
      "##0e28081e28082e28083e28084e28085e28086e28087e28088e28089e2808ae2808be2808": 896,
      "##0e38082e38094e38095e380b3e382a0e385a4": 897,
      "##8e2abbbe2abbde2bfb0e2bfb1e2bfb2e2bfb3e2bfb4e2bfb": 898,
      "##7e28598e28599e2859ae2859be2859ce2859de2859ee2859fe28895e288b6e28eae": 899,
      "##e295b1e2a7b6e2a7b8e2abbbe2abbde2bfb0e2bfb1e2bfb2e2bfb3e2bfb4e2bfb": 900,
      "##59fe185a0e19cb5e28080e28081e28082e28083e28084e28085e28086e28087e28088e28089e2808ae2808be2808": 901,
      "##c8fefbda1efbea0efbfb9efbfbaefbfbbefbfb": 902,
      "##d889d88ad9aadb94dc81dc82dc83dc84e18": 903,
      "##ec783cb90ccb7ccb8d689d68ad783d7b4": 904,
      "##99defb99eefbbbfefbc8eefbc8fefbda1efbea0efbfb9efbfbaefbfbbefbfb": 905,
      "##a0c2bcc2bdc2bec783cb90ccb7ccb8d689d68ad783d7b4": 906,
      "##e3889de3889ee38eaee38eafe38f86e38f9fea9e89efb894efb895efb8bfefb": 907,
      "##7c3139313a3333323b20c2a0c2bcc2bdc2bec783cb90ccb7ccb8d689d68ad783d7b4": 908,
      "##6c747c3137343a333b312e307c3139313a3333323b20c2a0c2bcc2bdc2bec783cb90ccb7ccb8d689d68ad783d7b4": 909,
      "333a373b64656661756c747c3137343a333b312e307c3139313a3333323b20c2a0c2bcc2bdc2bec783cb90ccb7ccb8d689d68ad783d7b4": 910,
      "##ee2808fe28090e28099e280a4e280a7e280a8e280a9e280aae280abe280ace280ade280aee280afe280b9e280bae28181e28184e28192e2819": 911,
      "##fe28593e28594e28595e28596e28597e28598e28599e2859ae2859be2859ce2859de2859ee2859fe28895e288b6e28eae": 912,
      "##cefbfbd7c3139323a383b6d6f6465726174657c": 913,
      "##5e2bfb6e2bfb7e2bfb8e2bfb9e2bfbae2bfbbe38080e38082e38094e38095e380b3e382a0e385a4": 914,
      "##e295b1e2a7b6e2a7b8e2abbbe2abbde2bfb0e2bfb1e2bfb2e2bfb3e2bfb4e2bfb5e2bfb6e2bfb7e2bfb8e2bfb9e2bfbae2bfbbe38080e38082e38094e38095e380b3e382a0e385a4": 915,
      "##59fe185a0e19cb5e28080e28081e28082e28083e28084e28085e28086e28087e28088e28089e2808ae2808be2808ee2808fe28090e28099e280a4e280a7e280a8e280a9e280aae280abe280ace280ade280aee280afe280b9e280bae28181e28184e28192e2819": 916,
      "##d889d88ad9aadb94dc81dc82dc83dc84e1859fe185a0e19cb5e28080e28081e28082e28083e28084e28085e28086e28087e28088e28089e2808ae2808be2808ee2808fe28090e28099e280a4e280a7e280a8e280a9e280aae280abe280ace280ade280aee280afe280b9e280bae28181e28184e28192e2819": 917,
      "##99defb99eefbbbfefbc8eefbc8fefbda1efbea0efbfb9efbfbaefbfbbefbfbcefbfbd7c3139323a383b6d6f6465726174657c": 918,
      "##e3889de3889ee38eaee38eafe38f86e38f9fea9e89efb894efb895efb8bfefb99defb99eefbbbfefbc8eefbc8fefbda1efbea0efbfb9efbfbaefbfbbefbfbcefbfbd7c3139323a383b6d6f6465726174657c": 919,
      "333a373b64656661756c747c3137343a333b312e307c3139313a3333323b20c2a0c2bcc2bdc2bec783cb90ccb7ccb8d689d68ad783d7b4d889d88ad9aadb94dc81dc82dc83dc84e1859fe185a0e19cb5e28080e28081e28082e28083e28084e28085e28086e28087e28088e28089e2808ae2808be2808ee2808fe28090e28099e280a4e280a7e280a8e280a9e280aae280abe280ace280ade280aee280afe280b9e280bae28181e28184e28192e2819": 920,
      "##fe28593e28594e28595e28596e28597e28598e28599e2859ae2859be2859ce2859de2859ee2859fe28895e288b6e28eaee295b1e2a7b6e2a7b8e2abbbe2abbde2bfb0e2bfb1e2bfb2e2bfb3e2bfb4e2bfb5e2bfb6e2bfb7e2bfb8e2bfb9e2bfbae2bfbbe38080e38082e38094e38095e380b3e382a0e385a4": 921,
      "333a373b64656661756c747c3137343a333b312e307c3139313a3333323b20c2a0c2bcc2bdc2bec783cb90ccb7ccb8d689d68ad783d7b4d889d88ad9aadb94dc81dc82dc83dc84e1859fe185a0e19cb5e28080e28081e28082e28083e28084e28085e28086e28087e28088e28089e2808ae2808be2808ee2808fe28090e28099e280a4e280a7e280a8e280a9e280aae280abe280ace280ade280aee280afe280b9e280bae28181e28184e28192e2819fe28593e28594e28595e28596e28597e28598e28599e2859ae2859be2859ce2859de2859ee2859fe28895e288b6e28eaee295b1e2a7b6e2a7b8e2abbbe2abbde2bfb0e2bfb1e2bfb2e2bfb3e2bfb4e2bfb5e2bfb6e2bfb7e2bfb8e2bfb9e2bfbae2bfbbe38080e38082e38094e38095e380b3e382a0e385a4": 922,
      "333a373b64656661756c747c3137343a333b312e307c3139313a3333323b20c2a0c2bcc2bdc2bec783cb90ccb7ccb8d689d68ad783d7b4d889d88ad9aadb94dc81dc82dc83dc84e1859fe185a0e19cb5e28080e28081e28082e28083e28084e28085e28086e28087e28088e28089e2808ae2808be2808ee2808fe28090e28099e280a4e280a7e280a8e280a9e280aae280abe280ace280ade280aee280afe280b9e280bae28181e28184e28192e2819fe28593e28594e28595e28596e28597e28598e28599e2859ae2859be2859ce2859de2859ee2859fe28895e288b6e28eaee295b1e2a7b6e2a7b8e2abbbe2abbde2bfb0e2bfb1e2bfb2e2bfb3e2bfb4e2bfb5e2bfb6e2bfb7e2bfb8e2bfb9e2bfbae2bfbbe38080e38082e38094e38095e380b3e382a0e385a4e3889de3889ee38eaee38eafe38f86e38f9fea9e89efb894efb895efb8bfefb99defb99eefbbbfefbc8eefbc8fefbda1efbea0efbfb9efbfbaefbfbbefbfbcefbfbd7c3139323a383b6d6f6465726174657c": 923,
      "hbo": 924,
      "sc": 925,
      "##nd": 926,
      "##ock": 927,
      "##ents": 928,
      "##thon": 929,
      "##cons": 930,
      "un": 931,
      "##tu": 932,
      "##34": 933,
      "##ory": 934,
      "##ile": 935,
      "devices": 936,
      "python": 937,
      "ip": 938,
      "##tens": 939,
      "##ex": 940,
      "##ap": 941,
      "##op": 942,
      "##kit": 943,
      "chrome": 944,
      "##ourc": 945,
      "icons": 946,
      "mem": 947,
      "meta": 948,
      "par": 949,
      "##tools": 950,
      "##ct": 951,
      "##pa": 952,
      "##ig": 953,
      "devtools": 954,
      "##lient": 955,
      "client": 956,
      "tas": 957,
      "##td": 958,
      "##ut": 959,
      "##ess": 960,
      "##ect": 961,
      "##ions": 962,
      "content": 963,
      "memory": 964,
      "task": 965,
      "and": 966,
      "re": 967,
      "same": 968,
      "tool": 969,
      "##si": 970,
      "##roid": 971,
      "##olic": 972,
      "##able": 973,
      "toolkit": 974,
      "dir": 975,
      "dar": 976,
      "no": 977,
      "pro": 978,
      "tools": 979,
      "##tri": 980,
      "##36": 981,
      "##70": 982,
      "##ow": 983,
      "##pon": 984,
      "##ird": 985,
      "##ata": 986,
      "int": 987,
      "##ages": 988,
      "android": 989,
      "00": 990,
      "at": 991,
      "bl": 992,
      "polic": 993,
      "##oot": 994,
      "##io": 995,
      "##stem": 996,
      "stat": 997,
      "6e6f77202d2032": 998,
      "entri": 999,
      "ipv": 1000,
      "policy": 1001,
      "entries": 1002,
      "em": 1003,
      "res": 1004,
      "xf": 1005,
      "##ew": 1006,
      "##av": 1007,
      "##pg": 1008,
      "##pu": 1009,
      "##erv": 1010,
      "##ork": 1011,
      "##ack": 1012,
      "##elp": 1013,
      "system": 1014,
      "compon": 1015,
      "darpa": 1016,
      "components": 1017,
      "bu": 1018,
      "cro": 1019,
      "sch": 1020,
      "ub": 1021,
      "##ra": 1022,
      "##rtc": 1023,
      "##35": 1024,
      "##bile": 1025,
      "##pc": 1026,
      "##im": 1027,
      "##qu": 1028,
      "motd": 1029,
      "mobile": 1030,
      "webrtc": 1031,
      "app": 1032,
      "##ype": 1033,
      "extens": 1034,
      "block": 1035,
      "xfce": 1036,
      "help": 1037,
      "pr": 1038,
      "pat": 1039,
      "tag": 1040,
      "##ff": 1041,
      "##sc": 1042,
      "##11": 1043,
      "##24": 1044,
      "test26": 1045,
      "conf": 1046,
      "apt": 1047,
      "cross": 1048,
      "test262": 1049,
      "bas": 1050,
      "ma": 1051,
      "sourc": 1052,
      "##ev": 1053,
      "##res": 1054,
      "##fs": 1055,
      "##sm": 1056,
      "##xed": 1057,
      "##3133": 1058,
      "##ilt": 1059,
      "##olor": 1060,
      "6e6f77202d2033": 1061,
      "ubsi": 1062,
      "patch": 1063,
      "lo": 1064,
      "per": 1065,
      "run": 1066,
      "vir": 1067,
      "##tr": 1068,
      "##ts": 1069,
      "##se": 1070,
      "##sp": 1071,
      "##bu": 1072,
      "##80": 1073,
      "##lem": 1074,
      "locale": 1075,
      "##ell": 1076,
      "##eck": 1077,
      "##and": 1078,
      "##und": 1079,
      "##unk": 1080,
      "trunk": 1081,
      "6e6f77202d203133": 1082,
      "module": 1083,
      "mixed": 1084,
      "requ": 1085,
      "ipv4": 1086,
      "sched": 1087,
      "cpu": 1088,
      "elem": 1089,
      "jpg": 1090,
      "pow": 1091,
      "pack": 1092,
      "red": 1093,
      "sec": 1094,
      "serv": 1095,
      "##96e": 1096,
      "##50": 1097,
      "##16": 1098,
      "##ost": 1099,
      "##les": 1100,
      "##ine": 1101,
      "usb": 1102,
      "##ease": 1103,
      "add": 1104,
      "https": 1105,
      "third": 1106,
      "extensions": 1107,
      "power": 1108,
      "co": 1109,
      "fre": 1110,
      "gyp": 1111,
      "hw": 1112,
      "host": 1113,
      "la": 1114,
      "lev": 1115,
      "sd": 1116,
      "su": 1117,
      "top": 1118,
      "##sh": 1119,
      "##ma": 1120,
      "##md": 1121,
      "##pl": 1122,
      "##get": 1123,
      "##if": 1124,
      "##uri": 1125,
      "##ation": 1126,
      "##ice": 1127,
      "##ort": 1128,
      "##ore": 1129,
      "ins": 1130,
      "##ript": 1131,
      "pci": 1132,
      "deps": 1133,
      "##tures": 1134,
      "party": 1135,
      "##igh": 1136,
      "resourc": 1137,
      "built": 1138,
      "xfce4": 1139,
      "##build": 1140,
      "request": 1141,
      "packages": 1142,
      "securi": 1143,
      "addon": 1144,
      "level": 1145,
      "security": 1146,
      "ar": 1147,
      "cr": 1148,
      "css": 1149,
      "cmd": 1150,
      "data": 1151,
      "fr": 1152,
      "fil": 1153,
      "gre": 1154,
      "mach": 1155,
      "opt": 1156,
      "rel": 1157,
      "wh": 1158,
      "##14": 1159,
      "##10": 1160,
      "##ms": 1161,
      "##mon": 1162,
      "##pk": 1163,
      "##ip": 1164,
      "##ust": 1165,
      "##ke": 1166,
      "##int": 1167,
      "##end": 1168,
      "##ary": 1169,
      "gnome": 1170,
      "##lugin": 1171,
      "mozbuild": 1172,
      "##7207365636f6e6473": 1173,
      "script": 1174,
      "##tual": 1175,
      "blockable": 1176,
      "6e6f77202d203330": 1177,
      "perl": 1178,
      "virtual": 1179,
      "element": 1180,
      "resources": 1181,
      "release": 1182,
      "av": 1183,
      "act": 1184,
      "bus": 1185,
      "db": 1186,
      "eth": 1187,
      "gt": 1188,
      "hic": 1189,
      "jav": 1190,
      "ls": 1191,
      "list": 1192,
      "ms": 1193,
      "moc": 1194,
      "mat": 1195,
      "new": 1196,
      "plugin": 1197,
      "rp": 1198,
      "rust": 1199,
      "si": 1200,
      "tty": 1201,
      "work": 1202,
      "##tot": 1203,
      "##fo": 1204,
      "##af": 1205,
      "##ail": 1206,
      "##db": 1207,
      "##dir": 1208,
      "##37": 1209,
      "##626": 1210,
      "##40": 1211,
      "##ll": 1212,
      "##ly": 1213,
      "##pr": 1214,
      "##gr": 1215,
      "##vs": 1216,
      "##ates": 1217,
      "##ator": 1218,
      "##eman": 1219,
      "##7420": 1220,
      "##age": 1221,
      "##ssion": 1222,
      "##conf": 1223,
      "the": 1224,
      "##ernet": 1225,
      "##out": 1226,
      "mips": 1227,
      "unit": 1228,
      "protot": 1229,
      "##ime": 1230,
      "source": 1231,
      "schedul": 1232,
      "ethernet": 1233,
      "hicolor": 1234,
      "java": 1235,
      "moch": 1236,
      "plugins": 1237,
      "prototype": 1238,
      "0000": 1239,
      "aut": 1240,
      "ca": 1241,
      "cl": 1242,
      "csp": 1243,
      "dpk": 1244,
      "fd": 1245,
      "gl": 1246,
      "man": 1247,
      "ne": 1248,
      "nss": 1249,
      "qu": 1250,
      "reb": 1251,
      "tp": 1252,
      "vm": 1253,
      "xpc": 1254,
      "##to": 1255,
      "##ee": 1256,
      "##ax": 1257,
      "##ain": 1258,
      "##amp": 1259,
      "##sd": 1260,
      "##do": 1261,
      "##96": 1262,
      "##92": 1263,
      "##363": 1264,
      "##25": 1265,
      "##bird": 1266,
      "##79": 1267,
      "##os": 1268,
      "##pro": 1269,
      "##gl": 1270,
      "##ian": 1271,
      "##ission": 1272,
      "##uct": 1273,
      "##ert": 1274,
      "##irect": 1275,
      "link": 1276,
      "conform": 1277,
      "##ace": 1278,
      "##str": 1279,
      "##ole": 1280,
      "##2e39": 1281,
      "##ang": 1282,
      "##ance": 1283,
      "##unt": 1284,
      "tran": 1285,
      "##umb": 1286,
      "##ypto": 1287,
      "examp": 1288,
      "domain": 1289,
      "python3": 1290,
      "python2": 1291,
      "attr": 1292,
      "status": 1293,
      "##ecko": 1294,
      "6e6f77202d20313338": 1295,
      "redirect": 1296,
      "addons": 1297,
      "auto": 1298,
      "dpkg": 1299,
      "reboot": 1300,
      "tp5": 1301,
      "conformance": 1302,
      "ac": 1303,
      "asm": 1304,
      "cras": 1305,
      "da": 1306,
      "es": 1307,
      "eol": 1308,
      "fs": 1309,
      "fea": 1310,
      "gf": 1311,
      "gecko": 1312,
      "hav": 1313,
      "id": 1314,
      "iio": 1315,
      "mac": 1316,
      "ou": 1317,
      "pic": 1318,
      "pine": 1319,
      "sb": 1320,
      "sp": 1321,
      "set": 1322,
      "seman": 1323,
      "tex": 1324,
      "upg": 1325,
      "wget": 1326,
      "##ng": 1327,
      "##test": 1328,
      "##tic": 1329,
      "##ting": 1330,
      "##e4": 1331,
      "##rary": 1332,
      "##5207365636f6e6473": 1333,
      "##15": 1334,
      "##37207365636f6e6473": 1335,
      "##02": 1336,
      "##b0": 1337,
      "##bed": 1338,
      "##ob": 1339,
      "##ok": 1340,
      "##let": 1341,
      "##line": 1342,
      "##px": 1343,
      "##hot": 1344,
      "##is": 1345,
      "##ial": 1346,
      "##work": 1347,
      "##ind": 1348,
      "##info": 1349,
      "##erbird": 1350,
      "##0000": 1351,
      "##all": 1352,
      "##ont": 1353,
      "##202d": 1354,
      "##332e": 1355,
      "##33207365636f6e6473": 1356,
      "##arra": 1357,
      "##7372": 1358,
      "libv": 1359,
      "library": 1360,
      "shell": 1361,
      "##tput": 1362,
      "##3130": 1363,
      "##ass": 1364,
      "shared": 1365,
      "##2e32": 1366,
      "##2e363": 1367,
      "##itest": 1368,
      "state": 1369,
      "stock": 1370,
      "sysct": 1371,
      "common": 1372,
      "##3a2f": 1373,
      "##aging": 1374,
      "##757372": 1375,
      "thund": 1376,
      "##reens": 1377,
      "exo": 1378,
      "images": 1379,
      "4280": 1380,
      "prof": 1381,
      "intl": 1382,
      "6e6f77202d203239": 1383,
      "ipv6": 1384,
      "em2": 1385,
      "##rade": 1386,
      "base": 1387,
      "bash": 1388,
      "##smission": 1389,
      "log": 1390,
      "##96e3a2f": 1391,
      "hwe": 1392,
      "crypto": 1393,
      "grep": 1394,
      "avail": 1395,
      "dbus": 1396,
      "gtk": 1397,
      "msn": 1398,
      "math": 1399,
      "##62696e3a2f": 1400,
      "schedule": 1401,
      "mochitest": 1402,
      "transmission": 1403,
      "examples": 1404,
      "crash": 1405,
      "have": 1406,
      "output": 1407,
      "pictures": 1408,
      "sbin": 1409,
      "semantic": 1410,
      "##array": 1411,
      "sysctl": 1412,
      "##7573722f": 1413,
      "thunderbird": 1414,
      "available": 1415,
      "semantics": 1416,
      "01": 1417,
      "5e4": 1418,
      "all": 1419,
      "br": 1420,
      "brows": 1421,
      "boot": 1422,
      "cat": 1423,
      "comed": 1424,
      "dr": 1425,
      "du": 1426,
      "deta": 1427,
      "ec": 1428,
      "fsc": 1429,
      "gmp": 1430,
      "gpu": 1431,
      "gif": 1432,
      "i2": 1433,
      "map": 1434,
      "nf": 1435,
      "on": 1436,
      "rat": 1437,
      "root": 1438,
      "sk": 1439,
      "snd": 1440,
      "spa": 1441,
      "ter": 1442,
      "vers": 1443,
      "vim": 1444,
      "xp": 1445,
      "xh": 1446,
      "xml": 1447,
      "xtens": 1448,
      "##te": 1449,
      "##f6": 1450,
      "##a5": 1451,
      "##sock": 1452,
      "##d5": 1453,
      "##des": 1454,
      "##dio": 1455,
      "##duct": 1456,
      "##5l": 1457,
      "##56e": 1458,
      "##12": 1459,
      "##60": 1460,
      "##6e2": 1461,
      "##696e": 1462,
      "##4a": 1463,
      "##44": 1464,
      "##04": 1465,
      "##7f": 1466,
      "##77": 1467,
      "##mb": 1468,
      "##og": 1469,
      "##ode": 1470,
      "##ler": 1471,
      "##h2": 1472,
      "##ie": 1473,
      "##iew": 1474,
      "##yn": 1475,
      "##yout": 1476,
      "##uc": 1477,
      "##ug": 1478,
      "##xt": 1479,
      "##xx": 1480,
      "##vb": 1481,
      "##kt": 1482,
      "##38207365636f6e6473": 1483,
      "locales": 1484,
      "##ark": 1485,
      "##ors": 1486,
      "##ord": 1487,
      "mount": 1488,
      "##eters": 1489,
      "##etyp": 1490,
      "##3134": 1491,
      "##emes": 1492,
      "webgl": 1493,
      "##minal": 1494,
      "updates": 1495,
      "##2e313": 1496,
      "##itor": 1497,
      "staging": 1498,
      "varian": 1499,
      "##anit": 1500,
      "apps": 1501,
      "##3039": 1502,
      "##ager": 1503,
      "##unch": 1504,
      "##6f756e": 1505,
      "##ameters": 1506,
      "##ther": 1507,
      "##cont": 1508,
      "themes": 1509,
      "miss": 1510,
      "scsi": 1511,
      "uname": 1512,
      "##342e": 1513,
      "parameters": 1514,
      "##ign": 1515,
      "dirty": 1516,
      "6e6f77202d203234": 1517,
      "bug": 1518,
      "apport": 1519,
      "extension": 1520,
      "helper": 1521,
      "print": 1522,
      "max": 1523,
      "main": 1524,
      "launch": 1525,
      "sdk": 1526,
      "pci0000": 1527,
      "arm": 1528,
      "cmdline": 1529,
      "films": 1530,
      "lsb": 1531,
      "workers": 1532,
      "neigh": 1533,
      "##proj": 1534,
      "gfx": 1535,
      "setting": 1536,
      "##obal": 1537,
      "##hots": 1538,
      "libvpx": 1539,
      "##reenshots": 1540,
      "detail": 1541,
      "fsck": 1542,
      "ratio": 1543,
      "spade": 1544,
      "terminal": 1545,
      "xtensa": 1546,
      "##socket": 1547,
      "settings": 1548,
      "bb": 1549,
      "back": 1550,
      "cn": 1551,
      "cp": 1552,
      "col": 1553,
      "cri": 1554,
      "can": 1555,
      "cut": 1556,
      "color": 1557,
      "cert": 1558,
      "dm": 1559,
      "deb": 1560,
      "ed": 1561,
      "ev": 1562,
      "fo": 1563,
      "fon": 1564,
      "find": 1565,
      "go": 1566,
      "gv": 1567,
      "git": 1568,
      "hda": 1569,
      "high": 1570,
      "if": 1571,
      "ig": 1572,
      "lc": 1573,
      "less": 1574,
      "lang": 1575,
      "lproj": 1576,
      "m5": 1577,
      "mm": 1578,
      "met": 1579,
      "m32": 1580,
      "mess": 1581,
      "mdio": 1582,
      "ns": 1583,
      "nib": 1584,
      "ol": 1585,
      "ps": 1586,
      "pk": 1587,
      "pref": 1588,
      "prefs": 1589,
      "pip": 1590,
      "pass": 1591,
      "rc": 1592,
      "so": 1593,
      "sl": 1594,
      "ser": 1595,
      "sel": 1596,
      "sens": 1597,
      "tw": 1598,
      "tem": 1599,
      "typ": 1600,
      "type": 1601,
      "ut": 1602,
      "ur": 1603,
      "ui": 1604,
      "uap": 1605,
      "umb": 1606,
      "val": 1607,
      "wir": 1608,
      "xc": 1609,
      "xpt": 1610,
      "zh": 1611,
      "##nc": 1612,
      "##name": 1613,
      "##time": 1614,
      "##rib": 1615,
      "##rap": 1616,
      "##filt": 1617,
      "##ast": 1618,
      "##sy": 1619,
      "##ser": 1620,
      "##sole": 1621,
      "##dc": 1622,
      "##d1": 1623,
      "##dk": 1624,
      "##data": 1625,
      "##97": 1626,
      "##5f": 1627,
      "##13": 1628,
      "##300": 1629,
      "##69": 1630,
      "##6b": 1631,
      "##68": 1632,
      "##41": 1633,
      "##48": 1634,
      "##08": 1635,
      "##28": 1636,
      "##27": 1637,
      "##br": 1638,
      "##bd": 1639,
      "##8a": 1640,
      "##81": 1641,
      "##lh": 1642,
      "##per": 1643,
      "##port": 1644,
      "##pip": 1645,
      "##page": 1646,
      "##z4": 1647,
      "##zer": 1648,
      "##gro": 1649,
      "##yd": 1650,
      "##ym": 1651,
      "##yu": 1652,
      "##ure": 1653,
      "##uage": 1654,
      "##x25": 1655,
      "##ve": 1656,
      "##view": 1657,
      "##kz": 1658,
      "##kh": 1659,
      "##kj": 1660,
      "##war": 1661,
      "##web": 1662,
      "##js": 1663,
      "##e20": 1664,
      "##e2fs": 1665,
      "##init": 1666,
      "user": 1667,
      "##eskt": 1668,
      "##3830": 1669,
      "##oxy": 1670,
      "##eam": 1671,
      "##3339": 1672,
      "##3336": 1673,
      "##7362696e3a2f": 1674,
      "inf": 1675,
      "inde": 1676,
      "console": 1677,
      "##31207365636f6e6473": 1678,
      "##aces": 1679,
      "##stat": 1680,
      "libl": 1681,
      "shad": 1682,
      "##6420": 1683,
      "##etch": 1684,
      "##ulator": 1685,
      "##emon": 1686,
      "##emas": 1687,
      "##ota": 1688,
      "homepage": 1689,
      "##edarray": 1690,
      "##ader": 1691,
      "##eless": 1692,
      "##ase": 1693,
      "##ash": 1694,
      "webcons": 1695,
      "check": 1696,
      "device": 1697,
      "mozap": 1698,
      "##mpe2fs": 1699,
      "##ite": 1700,
      "##616": 1701,
      "platforms": 1702,
      "defaults": 1703,
      "netfilt": 1704,
      "##7265": 1705,
      "##7275": 1706,
      "ther": 1707,
      "dow": 1708,
      "##852": 1709,
      "expr": 1710,
      "mim": 1711,
      "json": 1712,
      "##392e": 1713,
      "##39207365636f6e6473": 1714,
      "html5l": 1715,
      "##cept": 1716,
      "##like": 1717,
      "256x25": 1718,
      "sctp": 1719,
      "ipc": 1720,
      "##tension": 1721,
      "##extension": 1722,
      "parts": 1723,
      "##owed": 1724,
      "inter": 1725,
      "intel": 1726,
      "statm": 1727,
      "6e6f77202d20323039": 1728,
      "embed": 1729,
      "systemd": 1730,
      "schemas": 1731,
      "proxy": 1732,
      "runtime": 1733,
      "##andom": 1734,
      "6e6f77202d20313337": 1735,
      "services": 1736,
      "service": 1737,
      "layout": 1738,
      "sub": 1739,
      "sudo": 1740,
      "##shell": 1741,
      "##ific": 1742,
      "files": 1743,
      "when": 1744,
      "perl5": 1745,
      "elementary": 1746,
      "action": 1747,
      "actions": 1748,
      "lists": 1749,
      "simp": 1750,
      "worker": 1751,
      "##742063": 1752,
      "global": 1753,
      "quota": 1754,
      "xpcom": 1755,
      "xpcshell": 1756,
      "##sdlike": 1757,
      "##umbler": 1758,
      "accept": 1759,
      "daemon": 1760,
      "features": 1761,
      "text": 1762,
      "upgrade": 1763,
      "##tests": 1764,
      "##332e34": 1765,
      "##2e3237207365636f6e6473": 1766,
      "crashdb": 1767,
      "allowed": 1768,
      "browsers": 1769,
      "comedi": 1770,
      "drm": 1771,
      "dumpe2fs": 1772,
      "ecma": 1773,
      "i2c": 1774,
      "versions": 1775,
      "vim73": 1776,
      "xhr": 1777,
      "##duction": 1778,
      "missile": 1779,
      "cris": 1780,
      "certific": 1781,
      "gvfs": 1782,
      "ign": 1783,
      "lesspip": 1784,
      "language": 1785,
      "m32r": 1786,
      "messages": 1787,
      "old": 1788,
      "slab": 1789,
      "sensors": 1790,
      "typedarray": 1791,
      "uapi": 1792,
      "umbri": 1793,
      "wireless": 1794,
      "##esktop": 1795,
      "shadow": 1796,
      "webconsole": 1797,
      "mozapps": 1798,
      "netfilter": 1799,
      "##72756e2": 1800,
      "html5lib": 1801,
      "256x256": 1802,
      "lesspipe": 1803,
      "163": 1804,
      "3q": 1805,
      "310": 1806,
      "7z": 1807,
      "83": 1808,
      "an": 1809,
      "al": 1810,
      "au": 1811,
      "aw": 1812,
      "bo": 1813,
      "blu": 1814,
      "bsd": 1815,
      "ct": 1816,
      "cs": 1817,
      "cu": 1818,
      "car": 1819,
      "dma": 1820,
      "dconf": 1821,
      "dvb": 1822,
      "desktop": 1823,
      "fx": 1824,
      "fig": 1825,
      "gd": 1826,
      "gro": 1827,
      "gpl": 1828,
      "gconf": 1829,
      "gstr": 1830,
      "hi": 1831,
      "hist": 1832,
      "hum": 1833,
      "ir": 1834,
      "ipd": 1835,
      "ios": 1836,
      "jax": 1837,
      "ke": 1838,
      "li": 1839,
      "mn": 1840,
      "mc": 1841,
      "mar": 1842,
      "mic": 1843,
      "mtd": 1844,
      "mtr": 1845,
      "nat": 1846,
      "nul": 1847,
      "num": 1848,
      "name": 1849,
      "nav": 1850,
      "nfs": 1851,
      "op": 1852,
      "og": 1853,
      "off": 1854,
      "other": 1855,
      "pn": 1856,
      "rul": 1857,
      "ram": 1858,
      "rend": 1859,
      "random": 1860,
      "sr": 1861,
      "sun": 1862,
      "solic": 1863,
      "see": 1864,
      "sanit": 1865,
      "site": 1866,
      "to": 1867,
      "tl": 1868,
      "tar": 1869,
      "time": 1870,
      "txt": 1871,
      "tumbler": 1872,
      "uk": 1873,
      "upt": 1874,
      "upc": 1875,
      "vp": 1876,
      "vg": 1877,
      "v10": 1878,
      "vend": 1879,
      "ws": 1880,
      "win": 1881,
      "wrap": 1882,
      "xd": 1883,
      "xen": 1884,
      "xul": 1885,
      "x11": 1886,
      "yj": 1887,
      "yelp": 1888,
      "zm": 1889,
      "zj": 1890,
      "##n1": 1891,
      "##net": 1892,
      "##not": 1893,
      "##nect": 1894,
      "##ter": 1895,
      "##tre": 1896,
      "##type": 1897,
      "##e0": 1898,
      "##ees": 1899,
      "##e65": 1900,
      "##rr": 1901,
      "##rame": 1902,
      "##rpc": 1903,
      "##rader": 1904,
      "##f5": 1905,
      "##f4": 1906,
      "##f2": 1907,
      "##f75": 1908,
      "##fyd": 1909,
      "##aa": 1910,
      "##ay": 1911,
      "##ake": 1912,
      "##cr": 1913,
      "##com": 1914,
      "##cast": 1915,
      "##sl": 1916,
      "##set": 1917,
      "##sinit": 1918,
      "##d4": 1919,
      "##ding": 1920,
      "##d70": 1921,
      "##9c": 1922,
      "##9d": 1923,
      "##924": 1924,
      "##51": 1925,
      "##54": 1926,
      "##52": 1927,
      "##500": 1928,
      "##573": 1929,
      "##586": 1930,
      "##563": 1931,
      "##1r": 1932,
      "##17": 1933,
      "##1i": 1934,
      "##189": 1935,
      "##134": 1936,
      "##3z": 1937,
      "##3q": 1938,
      "##372": 1939,
      "##686": 1940,
      "##632": 1941,
      "##6207365636f6e6473": 1942,
      "##670": 1943,
      "##49": 1944,
      "##43": 1945,
      "##4j": 1946,
      "##2b": 1947,
      "##2e2": 1948,
      "##2e38": 1949,
      "##235": 1950,
      "##back": 1951,
      "##bsdlike": 1952,
      "##8f": 1953,
      "##83": 1954,
      "##84": 1955,
      "##82": 1956,
      "##87": 1957,
      "##820": 1958,
      "##824": 1959,
      "##7d": 1960,
      "##7a5": 1961,
      "##mn": 1962,
      "##mv": 1963,
      "##mal": 1964,
      "##mol": 1965,
      "##mem": 1966,
      "##man": 1967,
      "##p0": 1968,
      "##pers": 1969,
      "##par": 1970,
      "##put": 1971,
      "##zm": 1972,
      "##zz": 1973,
      "##gg": 1974,
      "##gex": 1975,
      "##ix": 1976,
      "##ij": 1977,
      "##ier": 1978,
      "##ies": 1979,
      "##ide": 1980,
      "##izer": 1981,
      "##ive": 1982,
      "##ye": 1983,
      "##yst": 1984,
      "##ub": 1985,
      "##ues": 1986,
      "##upd": 1987,
      "##ups": 1988,
      "##ures": 1989,
      "##x2": 1990,
      "##xm": 1991,
      "##x19": 1992,
      "##x24": 1993,
      "##vg": 1994,
      "##vas": 1995,
      "##kn": 1996,
      "##ker": 1997,
      "##kes": 1998,
      "##wc": 1999,
      "##wer": 2000,
      "##word": 2001,
      "##way": 2002,
      "##jcb": 2003,
      "##ject": 2004,
      "##jax": 2005,
      "##ink": 2006,
      "##ines": 2007,
      "##inib": 2008,
      "##ering": 2009,
      "##006": 2010,
      "##bffi": 2011,
      "##ire": 2012,
      "##ired": 2013,
      "##eserv": 2014,
      "##esign": 2015,
      "##3838": 2016,
      "##ally": 2017,
      "##onf": 2018,
      "##ear": 2019,
      "##oming": 2020,
      "##ompt": 2021,
      "##enc": 2022,
      "##enu": 2023,
      "##env": 2024,
      "##enh2": 2025,
      "2199": 2026,
      "##73202d": 2027,
      "##ict": 2028,
      "##ich": 2029,
      "##ick": 2030,
      "##icator": 2031,
      "testdata": 2032,
      "init": 2033,
      "info": 2034,
      "input": 2035,
      "192": 2036,
      "constr": 2037,
      "##6574": 2038,
      "##ils": 2039,
      "2459": 2040,
      "24x24": 2041,
      "libc": 2042,
      "libev": 2043,
      "sh4a": 2044,
      "mode": 2045,
      "##64f": 2046,
      "##642e": 2047,
      "##rol": 2048,
      "##roduction": 2049,
      "##etype": 2050,
      "##ded": 2051,
      "##old": 2052,
      "##6f63": 2053,
      "2011": 2054,
      "1003": 2055,
      "##tpd": 2056,
      "##3132": 2057,
      "##embed": 2058,
      "##emulator": 2059,
      "##emier": 2060,
      "includes": 2061,
      "##18c": 2062,
      "object": 2063,
      "##ab1": 2064,
      "##c2f": 2065,
      "##325": 2066,
      "##32207365636f6e6473": 2067,
      "delet": 2068,
      "##editor": 2069,
      "##adata": 2070,
      "##elist": 2071,
      "##asn1": 2072,
      "websocket": 2073,
      "webextension": 2074,
      "##ecord": 2075,
      "##ential": 2076,
      "dev4": 2077,
      "mozbo": 2078,
      "mozsc": 2079,
      "##3bc": 2080,
      "process": 2081,
      "##743a": 2082,
      "##7473202d": 2083,
      "##74642e": 2084,
      "##2f20": 2085,
      "##2f6574": 2086,
      "##635": 2087,
      "##iting": 2088,
      "##itec": 2089,
      "defens": 2090,
      "places": 2091,
      "notes": 2092,
      "##6172": 2093,
      "##616c": 2094,
      "notifyd": 2095,
      "netease": 2096,
      "netmon": 2097,
      "netstat": 2098,
      "netwer": 2099,
      "##ionally": 2100,
      "##30207365636f6e6473": 2101,
      "5027": 2102,
      "##unar": 2103,
      "##untu": 2104,
      "##idl": 2105,
      "contents": 2106,
      "contex": 2107,
      "contrib": 2108,
      "tree": 2109,
      "trace": 2110,
      "trash": 2111,
      "trees": 2112,
      "##72696e": 2113,
      "6e6f77202d203130": 2114,
      "6e6f77202d203134": 2115,
      "##ypes": 2116,
      "##753": 2117,
      "architec": 2118,
      "##cho": 2119,
      "##connect": 2120,
      "thumb": 2121,
      "thunar": 2122,
      "##outh": 2123,
      "##leg": 2124,
      "reftests": 2125,
      "##6c6f63": 2126,
      "##amework": 2127,
      "misc": 2128,
      "migr": 2129,
      "##9ae": 2130,
      "##2e3033207365636f6e6473": 2131,
      "strict": 2132,
      "pyc": 2133,
      "pyweb": 2134,
      "pyasn1": 2135,
      "4014": 2136,
      "25532": 2137,
      "##746572": 2138,
      "22504": 2139,
      "##6d6f74642e": 2140,
      "env": 2141,
      "score": 2142,
      "screenshots": 2143,
      "unic": 2144,
      "unix": 2145,
      "##ture": 2146,
      "##34207365636f6e6473": 2147,
      "##openh2": 2148,
      "parser": 2149,
      "##igation": 2150,
      "##tdl": 2151,
      "##ession": 2152,
      "##essions": 2153,
      "##ector": 2154,
      "contenttype": 2155,
      "memory2": 2156,
      "memory14": 2157,
      "regr": 2158,
      "regex": 2159,
      "dirname": 2160,
      "project": 2161,
      "##36207365636f6e6473": 2162,
      "##362e313": 2163,
      "##7072696e": 2164,
      "intern": 2165,
      "introduction": 2166,
      "em1": 2167,
      "##ework": 2168,
      "ubuntu": 2169,
      "##rast": 2170,
      "##352e": 2171,
      "premier": 2172,
      "##2431": 2173,
      "maps": 2174,
      "sources": 2175,
      "sourcelist": 2176,
      "##fs2": 2177,
      "6e6f77202d20333132": 2178,
      "virbr": 2179,
      "##space": 2180,
      "##anding": 2181,
      "6e6f77202d203133373": 2182,
      "required": 2183,
      "cpu3": 2184,
      "elements": 2185,
      "redesign": 2186,
      "servo": 2187,
      "##504": 2188,
      "count": 2189,
      "cook": 2190,
      "free": 2191,
      "freetyp": 2192,
      "freetype": 2193,
      "sdb1": 2194,
      "suupd": 2195,
      "arp": 2196,
      "from": 2197,
      "front": 2198,
      "framework": 2199,
      "optionally": 2200,
      "who": 2201,
      "which": 2202,
      "scripting": 2203,
      "virtualenv": 2204,
      "gtest": 2205,
      "msvs": 2206,
      "newer": 2207,
      "sis": 2208,
      "##62696": 2209,
      "##print": 2210,
      "##74202f6574": 2211,
      "##74202431": 2212,
      "unity": 2213,
      "scheduleserv": 2214,
      "class": 2215,
      "clear": 2216,
      "fdinfo": 2217,
      "manager": 2218,
      "quit": 2219,
      "##osx": 2220,
      "##2e3932207365636f6e6473": 2221,
      "domain1": 2222,
      "6e6f77202d2031333834": 2223,
      "geckoembed": 2224,
      "macosx": 2225,
      "spark": 2226,
      "upgrader": 2227,
      "##ngrade": 2228,
      "##b0ff": 2229,
      "##2e3637207365636f6e6473": 2230,
      "##2e3635207365636f6e6473": 2231,
      "profile": 2232,
      "proftpd": 2233,
      "6e6f77202d20323939": 2234,
      "mathjax": 2235,
      "##7573722f6c6f63": 2236,
      "5e4d": 2237,
      "gmpopenh2": 2238,
      "onther": 2239,
      "skia": 2240,
      "xpconnect": 2241,
      "mountinfo": 2242,
      "##etypes": 2243,
      "variant": 2244,
      "variants": 2245,
      "##anity": 2246,
      "##6f756e742063": 2247,
      "##6f756e743a": 2248,
      "##contrast": 2249,
      "lsbsy": 2250,
      "terminalemulator": 2251,
      "bbc": 2252,
      "backgro": 2253,
      "coll": 2254,
      "canvas": 2255,
      "debug": 2256,
      "editing": 2257,
      "event": 2258,
      "fonts": 2259,
      "highcontrast": 2260,
      "iframe": 2261,
      "m5mol": 2262,
      "metadata": 2263,
      "prefetch": 2264,
      "password": 2265,
      "sound": 2266,
      "serial": 2267,
      "select": 2268,
      "templ": 2269,
      "utils": 2270,
      "url": 2271,
      "values": 2272,
      "##6b20": 2273,
      "##ware": 2274,
      "##e202f": 2275,
      "##eamer": 2276,
      "infinib": 2277,
      "index": 2278,
      "libltdl": 2279,
      "checkers": 2280,
      "##616c2f": 2281,
      "##726573": 2282,
      "thermal": 2283,
      "downgrade": 2284,
      "expressions": 2285,
      "mimetypes": 2286,
      "jsonview": 2287,
      "interf": 2288,
      "embedded": 2289,
      "subdir": 2290,
      "simple": 2291,
      "##332e3431207365636f6e6473": 2292,
      "certificates": 2293,
      "ignore": 2294,
      "typedarrays": 2295,
      "umbria": 2296,
      "##72756e2d70": 2297,
      "awk": 2298,
      "ctypes": 2299,
      "figures": 2300,
      "gstreamer": 2301,
      "history": 2302,
      "humanity": 2303,
      "irq": 2304,
      "libffi": 2305,
      "micro": 2306,
      "null": 2307,
      "numa": 2308,
      "navigation": 2309,
      "open": 2310,
      "ogles": 2311,
      "pnp0": 2312,
      "rules": 2313,
      "rendering": 2314,
      "sunrpc": 2315,
      "solicit": 2316,
      "seek": 2317,
      "sanitizer": 2318,
      "target": 2319,
      "uptime": 2320,
      "upcoming": 2321,
      "vendor": 2322,
      "wrappers": 2323,
      "xdg": 2324,
      "yjjcb": 2325,
      "zmq": 2326,
      "##e6578": 2327,
      "##5636b20": 2328,
      "##1i64f": 2329,
      "##372e38": 2330,
      "##2e3839207365636f6e6473": 2331,
      "initr": 2332,
      "construct": 2333,
      "libevent": 2334,
      "delete": 2335,
      "mozboot": 2336,
      "mozscreenshots": 2337,
      "##7473202d2d": 2338,
      "defense": 2339,
      "##61727473202d2d": 2340,
      "netmonitor": 2341,
      "netwerk": 2342,
      "context": 2343,
      "migration": 2344,
      "pywebsocket": 2345,
      "##7072696e74202431": 2346,
      "premieres": 2347,
      "virbr0": 2348,
      "cookie": 2349,
      "freetype2": 2350,
      "suupdate": 2351,
      "frontend": 2352,
      "##74202f6574632": 2353,
      "scheduleservlet": 2354,
      "sparkle": 2355,
      "##7573722f6c6f63616c2f": 2356,
      "gmpopenh264": 2357,
      "ontherecord": 2358,
      "##6f756e7420636f756e743a": 2359,
      "lsbsysinit": 2360,
      "background": 2361,
      "m5mols": 2362,
      "infiniband": 2363,
      "##72756e2d7061727473202d2d": 2364,
      "yjjcb1i64f": 2365,
      "03": 2366,
      "000": 2367,
      "00000": 2368,
      "189": 2369,
      "161": 2370,
      "1z4": 2371,
      "1852": 2372,
      "2f": 2373,
      "2a": 2374,
      "2d": 2375,
      "29": 2376,
      "294": 2377,
      "295": 2378,
      "31": 2379,
      "3ac": 2380,
      "36f": 2381,
      "4n": 2382,
      "4d": 2383,
      "4q": 2384,
      "438": 2385,
      "433": 2386,
      "439": 2387,
      "4325": 2388,
      "5v": 2389,
      "574": 2390,
      "68": 2391,
      "6h": 2392,
      "69a": 2393,
      "680": 2394,
      "73": 2395,
      "7b": 2396,
      "773": 2397,
      "790": 2398,
      "770": 2399,
      "7363": 2400,
      "760": 2401,
      "7d1": 2402,
      "8r": 2403,
      "88": 2404,
      "864": 2405,
      "89c": 2406,
      "9f": 2407,
      "9rg": 2408,
      "ae": 2409,
      "as": 2410,
      "a1": 2411,
      "a3": 2412,
      "a2": 2413,
      "ab": 2414,
      "aes": 2415,
      "aux": 2416,
      "aar": 2417,
      "aic": 2418,
      "ath": 2419,
      "arg": 2420,
      "ams": 2421,
      "a54": 2422,
      "azm": 2423,
      "bc": 2424,
      "bs": 2425,
      "bd": 2426,
      "b5": 2427,
      "b1": 2428,
      "bi": 2429,
      "by": 2430,
      "bx": 2431,
      "bal": 2432,
      "ben": 2433,
      "b64": 2434,
      "bro": 2435,
      "bel": 2436,
      "bit": 2437,
      "band": 2438,
      "b16": 2439,
      "bdo": 2440,
      "bang": 2441,
      "ball": 2442,
      "bf2": 2443,
      "b43": 2444,
      "bold": 2445,
      "c1": 2446,
      "c6": 2447,
      "c2": 2448,
      "cx": 2449,
      "cw": 2450,
      "cj": 2451,
      "cer": 2452,
      "cal": 2453,
      "cac": 2454,
      "clu": 2455,
      "cla": 2456,
      "cam": 2457,
      "cern": 2458,
      "cts": 2459,
      "core": 2460,
      "cvs": 2461,
      "cgl": 2462,
      "cuc": 2463,
      "cxx": 2464,
      "cgro": 2465,
      "dn": 2466,
      "dt": 2467,
      "df": 2468,
      "dc": 2469,
      "dd": 2470,
      "dl": 2471,
      "dv": 2472,
      "dead": 2473,
      "dst": 2474,
      "dc2": 2475,
      "dot": 2476,
      "dad": 2477,
      "dtu": 2478,
      "dpa": 2479,
      "dio": 2480,
      "dav": 2481,
      "dra": 2482,
      "dis": 2483,
      "dial": 2484,
      "dyn": 2485,
      "et": 2486,
      "ee": 2487,
      "e0": 2488,
      "ep": 2489,
      "eg": 2490,
      "eu": 2491,
      "ej": 2492,
      "ead": 2493,
      "eba": 2494,
      "esc": 2495,
      "esp": 2496,
      "echo": 2497,
      "f4": 2498,
      "fb": 2499,
      "fp": 2500,
      "fu": 2501,
      "fen": 2502,
      "for": 2503,
      "fib": 2504,
      "fing": 2505,
      "ftp": 2506,
      "file": 2507,
      "fork": 2508,
      "ftr": 2509,
      "fore": 2510,
      "fly": 2511,
      "font": 2512,
      "fast": 2513,
      "fake": 2514,
      "fman": 2515,
      "gs": 2516,
      "gb": 2517,
      "gh": 2518,
      "gi": 2519,
      "gk": 2520,
      "gir": 2521,
      "get": 2522,
      "gri": 2523,
      "gad": 2524,
      "gut": 2525,
      "gma": 2526,
      "gcr": 2527,
      "hm": 2528,
      "hp": 2529,
      "has": 2530,
      "hid": 2531,
      "hyp": 2532,
      "hou": 2533,
      "hex": 2534,
      "hand": 2535,
      "his": 2536,
      "hash": 2537,
      "hyst": 2538,
      "hold": 2539,
      "ic": 2540,
      "io": 2541,
      "il": 2542,
      "ii": 2543,
      "imp": 2544,
      "iop": 2545,
      "i40": 2546,
      "ivs": 2547,
      "ih2": 2548,
      "jo": 2549,
      "jp": 2550,
      "jar": 2551,
      "jem": 2552,
      "jroc": 2553,
      "jit": 2554,
      "jun": 2555,
      "jqu": 2556,
      "jdk": 2557,
      "kr": 2558,
      "kd": 2559,
      "ko": 2560,
      "ku": 2561,
      "kv": 2562,
      "kk": 2563,
      "kpro": 2564,
      "kmem": 2565,
      "ln": 2566,
      "lt": 2567,
      "l2": 2568,
      "lh": 2569,
      "lg": 2570,
      "lw": 2571,
      "lar": 2572,
      "lic": 2573,
      "led": 2574,
      "lad": 2575,
      "las": 2576,
      "lit": 2577,
      "ldb": 2578,
      "landing": 2579,
      "mf": 2580,
      "my": 2581,
      "mq": 2582,
      "mk": 2583,
      "mal": 2584,
      "mid": 2585,
      "mum": 2586,
      "mpt": 2587,
      "mce": 2588,
      "mus": 2589,
      "mgr": 2590,
      "mvs": 2591,
      "mkt": 2592,
      "mark": 2593,
      "mxm": 2594,
      "mines": 2595,
      "menu": 2596,
      "na": 2597,
      "nm": 2598,
      "ni": 2599,
      "nu": 2600,
      "nk": 2601,
      "nest": 2602,
      "nic": 2603,
      "nil": 2604,
      "nice": 2605,
      "nigh": 2606,
      "numb": 2607,
      "necko": 2608,
      "of": 2609,
      "oa": 2610,
      "oc": 2611,
      "os": 2612,
      "ov": 2613,
      "oq": 2614,
      "oom": 2615,
      "oct": 2616,
      "out": 2617,
      "opro": 2618,
      "pt": 2619,
      "pa": 2620,
      "pp": 2621,
      "pv": 2622,
      "pq": 2623,
      "pin": 2624,
      "pol": 2625,
      "pul": 2626,
      "pas": 2627,
      "pool": 2628,
      "pan": 2629,
      "p30": 2630,
      "pag": 2631,
      "pam": 2632,
      "pty": 2633,
      "pata": 2634,
      "ppc": 2635,
      "port": 2636,
      "png": 2637,
      "phot": 2638,
      "pmb": 2639,
      "pdc": 2640,
      "qt": 2641,
      "qs": 2642,
      "ql": 2643,
      "qg": 2644,
      "qq": 2645,
      "qvs": 2646,
      "qinfo": 2647,
      "q5f": 2648,
      "rn": 2649,
      "rf": 2650,
      "rb": 2651,
      "rw": 2652,
      "read": 2653,
      "rol": 2654,
      "rad": 2655,
      "rpc": 2656,
      "rim": 2657,
      "reck": 2658,
      "rsh": 2659,
      "rout": 2660,
      "s3": 2661,
      "s6": 2662,
      "sal": 2663,
      "sib": 2664,
      "sil": 2665,
      "sol": 2666,
      "slu": 2667,
      "smp": 2668,
      "sam": 2669,
      "sum": 2670,
      "sda1": 2671,
      "sop": 2672,
      "sect": 2673,
      "sand": 2674,
      "ssh": 2675,
      "saf": 2676,
      "sf6": 2677,
      "sf5": 2678,
      "ssl": 2679,
      "svg": 2680,
      "session": 2681,
      "tc": 2682,
      "tx": 2683,
      "tri": 2684,
      "tel": 2685,
      "tile": 2686,
      "tail": 2687,
      "t7f": 2688,
      "team": 2689,
      "tvg": 2690,
      "uid": 2691,
      "uint": 2692,
      "ucast": 2693,
      "vt": 2694,
      "vs": 2695,
      "v3": 2696,
      "v2": 2697,
      "vo": 2698,
      "v32": 2699,
      "vit": 2700,
      "vml": 2701,
      "via": 2702,
      "vie": 2703,
      "view": 2704,
      "vdk": 2705,
      "v17": 2706,
      "vide": 2707,
      "w3": 2708,
      "w6": 2709,
      "w8": 2710,
      "wo": 2711,
      "wi": 2712,
      "wea": 2713,
      "wri": 2714,
      "wit": 2715,
      "wid": 2716,
      "xl": 2717,
      "xz": 2718,
      "xq": 2719,
      "xk": 2720,
      "xir": 2721,
      "xil": 2722,
      "xap": 2723,
      "x50": 2724,
      "xpr": 2725,
      "x25": 2726,
      "x5f": 2727,
      "yv": 2728,
      "yaf": 2729,
      "ze": 2730,
      "z3z": 2731,
      "##nt": 2732,
      "##nb": 2733,
      "##nl": 2734,
      "##nq": 2735,
      "##ning": 2736,
      "##nel": 2737,
      "##nec": 2738,
      "##nam": 2739,
      "##nex": 2740,
      "##ness": 2741,
      "##n80": 2742,
      "##nail": 2743,
      "##tf": 2744,
      "##t1": 2745,
      "##tes": 2746,
      "##tag": 2747,
      "##tml": 2748,
      "##tap": 2749,
      "##tio": 2750,
      "##tly": 2751,
      "##tter": 2752,
      "##tive": 2753,
      "##e9": 2754,
      "##e1": 2755,
      "##e7": 2756,
      "##eg": 2757,
      "##eon": 2758,
      "##ede": 2759,
      "##ed8": 2760,
      "##e7b": 2761,
      "##e6e": 2762,
      "##e95": 2763,
      "##e9f": 2764,
      "##eus": 2765,
      "##e11": 2766,
      "##e686": 2767,
      "##e8f": 2768,
      "##rm": 2769,
      "##ry": 2770,
      "##rea": 2771,
      "##ric": 2772,
      "##ror": 2773,
      "##rate": 2774,
      "##ring": 2775,
      "##ran": 2776,
      "##rag": 2777,
      "##rust": 2778,
      "##rly": 2779,
      "##rng": 2780,
      "##rym": 2781,
      "##fr": 2782,
      "##fa": 2783,
      "##fc": 2784,
      "##f0": 2785,
      "##f8": 2786,
      "##fj": 2787,
      "##f20": 2788,
      "##f65": 2789,
      "##fde": 2790,
      "##f7b": 2791,
      "##f63": 2792,
      "##fla": 2793,
      "##f94": 2794,
      "##file": 2795,
      "##f50": 2796,
      "##ftest": 2797,
      "##find": 2798,
      "##f7f": 2799,
      "##fyn": 2800,
      "##f924": 2801,
      "##f6d6f74642e": 2802,
      "##a9": 2803,
      "##a1": 2804,
      "##a2": 2805,
      "##aw": 2806,
      "##ae2": 2807,
      "##a20": 2808,
      "##a7c": 2809,
      "##apd": 2810,
      "##a74": 2811,
      "##apt": 2812,
      "##ayn": 2813,
      "##ae9f": 2814,
      "##c5": 2815,
      "##c6": 2816,
      "##co": 2817,
      "##ci": 2818,
      "##cw": 2819,
      "##c59": 2820,
      "##cal": 2821,
      "##cea": 2822,
      "##cen": 2823,
      "##c89": 2824,
      "##c6f": 2825,
      "##cing": 2826,
      "##cel": 2827,
      "##cent": 2828,
      "##c94": 2829,
      "##cabb": 2830,
      "##client": 2831,
      "##color": 2832,
      "##c50": 2833,
      "##caf": 2834,
      "##c40": 2835,
      "##cf6": 2836,
      "##cd5": 2837,
      "##cd1": 2838,
      "##cnet": 2839,
      "##cf4": 2840,
      "##caa": 2841,
      "##c9d": 2842,
      "##cf94": 2843,
      "##sa": 2844,
      "##su": 2845,
      "##sj": 2846,
      "##sas": 2847,
      "##sec": 2848,
      "##sable": 2849,
      "##s16": 2850,
      "##saf": 2851,
      "##sign": 2852,
      "##sework": 2853,
      "##dd": 2854,
      "##d0": 2855,
      "##d2": 2856,
      "##dm": 2857,
      "##dp": 2858,
      "##dv": 2859,
      "##d00": 2860,
      "##d33": 2861,
      "##d19": 2862,
      "##d2f": 2863,
      "##d78": 2864,
      "##d94": 2865,
      "##dyp": 2866,
      "##dle": 2867,
      "##d9f": 2868,
      "##dma": 2869,
      "##d92": 2870,
      "##d4a": 2871,
      "##dicator": 2872,
      "##98": 2873,
      "##9l": 2874,
      "##9i": 2875,
      "##9y": 2876,
      "##9u": 2877,
      "##9q": 2878,
      "##986": 2879,
      "##932": 2880,
      "##978": 2881,
      "##975": 2882,
      "##9207365636f6e6473": 2883,
      "##96d": 2884,
      "##916": 2885,
      "##9db": 2886,
      "##9ll": 2887,
      "##979": 2888,
      "##9134": 2889,
      "##5b": 2890,
      "##520": 2891,
      "##564": 2892,
      "##519": 2893,
      "##5ba": 2894,
      "##57b4": 2895,
      "##5ff": 2896,
      "##580": 2897,
      "##550": 2898,
      "##5te": 2899,
      "##57f": 2900,
      "##5d1": 2901,
      "##5cr": 2902,
      "##5573": 2903,
      "##5753": 2904,
      "##5e6578": 2905,
      "##5d19": 2906,
      "##1e": 2907,
      "##1l": 2908,
      "##1k": 2909,
      "##1ef": 2910,
      "##100": 2911,
      "##159": 2912,
      "##1ead": 2913,
      "##1eb": 2914,
      "##1ab": 2915,
      "##178": 2916,
      "##1d6": 2917,
      "##16c": 2918,
      "##12e30": 2919,
      "##1op": 2920,
      "##137": 2921,
      "##3y": 2922,
      "##3v": 2923,
      "##365": 2924,
      "##399": 2925,
      "##378": 2926,
      "##376": 2927,
      "##36c": 2928,
      "##3sd": 2929,
      "##3kj": 2930,
      "##3e0": 2931,
      "##3e202f": 2932,
      "##3f8": 2933,
      "##3cabb": 2934,
      "##3sas": 2935,
      "##6n": 2936,
      "##62": 2937,
      "##6i": 2938,
      "##6cb": 2939,
      "##699": 2940,
      "##62e": 2941,
      "##6ig": 2942,
      "##6xx": 2943,
      "##628": 2944,
      "##6x19": 2945,
      "##618c": 2946,
      "##6ab1": 2947,
      "##63bc": 2948,
      "##42": 2949,
      "##4l": 2950,
      "##4x": 2951,
      "##4v": 2952,
      "##4k": 2953,
      "##459": 2954,
      "##489": 2955,
      "##464": 2956,
      "##470": 2957,
      "##424": 2958,
      "##479": 2959,
      "##4dc": 2960,
      "##4f7b": 2961,
      "##4d94": 2962,
      "##45573": 2963,
      "##46xx": 2964,
      "##06": 2965,
      "##0h": 2966,
      "##0x": 2967,
      "##0j": 2968,
      "##038": 2969,
      "##0c2": 2970,
      "##03a": 2971,
      "##0207365636f6e6473": 2972,
      "##026": 2973,
      "##096": 2974,
      "##079": 2975,
      "##015": 2976,
      "##0d5": 2977,
      "##052": 2978,
      "##0cw": 2979,
      "##0su": 2980,
      "##098": 2981,
      "##0378": 2982,
      "##2a": 2983,
      "##21": 2984,
      "##22": 2985,
      "##2l": 2986,
      "##2g": 2987,
      "##231": 2988,
      "##2ad": 2989,
      "##299": 2990,
      "##2207365636f6e6473": 2991,
      "##29a": 2992,
      "##211": 2993,
      "##214": 2994,
      "##2a5": 2995,
      "##2aa": 2996,
      "##2924": 2997,
      "##21r": 2998,
      "##274202f6574632": 2999,
      "##b8": 3000,
      "##bl": 3001,
      "##bp": 3002,
      "##bg": 3003,
      "##bes": 3004,
      "##box": 3005,
      "##be38": 3006,
      "##bil": 3007,
      "##bla": 3008,
      "##bev": 3009,
      "##blem": 3010,
      "##b5f": 3011,
      "##b8a": 3012,
      "##base": 3013,
      "##bmv": 3014,
      "##b18c": 3015,
      "##b4v": 3016,
      "##8o": 3017,
      "##859": 3018,
      "##831": 3019,
      "##832": 3020,
      "##876": 3021,
      "##830": 3022,
      "##8ra": 3023,
      "##83039": 3024,
      "##8006": 3025,
      "##8d4a": 3026,
      "##7z": 3027,
      "##7x": 3028,
      "##7j": 3029,
      "##738": 3030,
      "##786": 3031,
      "##7c8": 3032,
      "##763": 3033,
      "##790": 3034,
      "##7ff": 3035,
      "##711": 3036,
      "##796e": 3037,
      "##716": 3038,
      "##7xx": 3039,
      "##7ab1": 3040,
      "##7e202f": 3041,
      "##mir": 3042,
      "##mor": 3043,
      "##mst": 3044,
      "##mlu": 3045,
      "##meric": 3046,
      "##ment": 3047,
      "##mun": 3048,
      "##ments": 3049,
      "##mct": 3050,
      "##mgr": 3051,
      "##mvs": 3052,
      "##mission": 3053,
      "##mvb": 3054,
      "##menu": 3055,
      "##od": 3056,
      "##oh": 3057,
      "##ov": 3058,
      "##oad": 3059,
      "##o11": 3060,
      "##odes": 3061,
      "##o5l": 3062,
      "##o8o": 3063,
      "##l3": 3064,
      "##lz": 3065,
      "##lg": 3066,
      "##lef": 3067,
      "##lic": 3068,
      "##lib": 3069,
      "##led": 3070,
      "##list": 3071,
      "##lec": 3072,
      "##lect": 3073,
      "##link": 3074,
      "##p2": 3075,
      "##py": 3076,
      "##pat": 3077,
      "##pol": 3078,
      "##plu": 3079,
      "##pent": 3080,
      "##pap": 3081,
      "##pert": 3082,
      "##pace": 3083,
      "##pie": 3084,
      "##pov": 3085,
      "##ze": 3086,
      "##zem": 3087,
      "##zue": 3088,
      "##zsc": 3089,
      "##zjs": 3090,
      "##ht": 3091,
      "##hg": 3092,
      "##hi": 3093,
      "##hy": 3094,
      "##hx": 3095,
      "##hen": 3096,
      "##home": 3097,
      "##hoot": 3098,
      "##hase": 3099,
      "##hzz": 3100,
      "##hkn": 3101,
      "##hod": 3102,
      "##ge": 3103,
      "##gc": 3104,
      "##gs": 3105,
      "##go": 3106,
      "##gp": 3107,
      "##ger": 3108,
      "##gli": 3109,
      "##gsm": 3110,
      "##gb4v": 3111,
      "##ght": 3112,
      "##ii": 3113,
      "##ik": 3114,
      "##iab": 3115,
      "##i32": 3116,
      "##iel": 3117,
      "##ikit": 3118,
      "##ish": 3119,
      "##iuc": 3120,
      "##i2l": 3121,
      "##yk": 3122,
      "##yoc": 3123,
      "##yan": 3124,
      "##yle": 3125,
      "##ython": 3126,
      "##ystem": 3127,
      "##yles": 3128,
      "##ybird": 3129,
      "##yte": 3130,
      "##ykh": 3131,
      "##yring": 3132,
      "##yfla": 3133,
      "##yaw": 3134,
      "##ybg": 3135,
      "##up": 3136,
      "##uz": 3137,
      "##ude": 3138,
      "##uid": 3139,
      "##utc": 3140,
      "##uth": 3141,
      "##uye": 3142,
      "##xa": 3143,
      "##xh": 3144,
      "##x20": 3145,
      "##x33": 3146,
      "##x64": 3147,
      "##x32": 3148,
      "##x94": 3149,
      "##xou": 3150,
      "##xle": 3151,
      "##xpt": 3152,
      "##x36": 3153,
      "##x14": 3154,
      "##x12": 3155,
      "##xsy": 3156,
      "##x48": 3157,
      "##xnet": 3158,
      "##xyan": 3159,
      "##vq": 3160,
      "##val": 3161,
      "##vell": 3162,
      "##vconf": 3163,
      "##v15": 3164,
      "##vzm": 3165,
      "##v9q": 3166,
      "##v1op": 3167,
      "##v6i": 3168,
      "##ql": 3169,
      "##qom": 3170,
      "##qac": 3171,
      "##q81": 3172,
      "##q3kj": 3173,
      "##q8ra": 3174,
      "##ku": 3175,
      "##kef": 3176,
      "##kbo": 3177,
      "##k11": 3178,
      "##kdc": 3179,
      "##kkh": 3180,
      "##k4j": 3181,
      "##kcen": 3182,
      "##k5cr": 3183,
      "##kxh": 3184,
      "##wr": 3185,
      "##wri": 3186,
      "##wex": 3187,
      "##wable": 3188,
      "##wird": 3189,
      "##wrap": 3190,
      "##wmn": 3191,
      "##w9u": 3192,
      "##wmvs": 3193,
      "##wgc": 3194,
      "##jy": 3195,
      "##jvb": 3196,
      "##jlh": 3197,
      "##jnq": 3198,
      "##jfj": 3199,
      "##j4k": 3200,
      "##e2f65": 3201,
      "##ef3a": 3202,
      "##ef02": 3203,
      "##ins": 3204,
      "##inx": 3205,
      "##inst": 3206,
      "##ined": 3207,
      "##ination": 3208,
      "##inci": 3209,
      "##inuz": 3210,
      "##erla": 3211,
      "##ertd": 3212,
      "##ergl": 3213,
      "##eryu": 3214,
      "##eries": 3215,
      "##erenc": 3216,
      "##erprint": 3217,
      "##er3v": 3218,
      "users": 3219,
      "uscaf": 3220,
      "usrv": 3221,
      "##005": 3222,
      "##ocs": 3223,
      "##bfc59": 3224,
      "##bfd92": 3225,
      "##bf2a5": 3226,
      "##iron": 3227,
      "##esg": 3228,
      "##3839": 3229,
      "##3816": 3230,
      "##382e39": 3231,
      "##38332e": 3232,
      "##38362e313": 3233,
      "##382e3635207365636f6e6473": 3234,
      "##38372e38": 3235,
      "##5973": 3236,
      "##590c2": 3237,
      "##alic": 3238,
      "##alable": 3239,
      "##alert": 3240,
      "##alog": 3241,
      "##albl": 3242,
      "##oning": 3243,
      "localed": 3244,
      "1302": 3245,
      "1308": 3246,
      "##eak": 3247,
      "##eab0ff": 3248,
      "##2020": 3249,
      "##2018": 3250,
      "##206d": 3251,
      "##2041": 3252,
      "##207d": 3253,
      "##20504": 3254,
      "##207072696e74202431": 3255,
      "##2072756e2d7061727473202d2d": 3256,
      "##2042": 3257,
      "##ating": 3258,
      "##33c": 3259,
      "##337c": 3260,
      "##3335": 3261,
      "##33342e": 3262,
      "##33332e3431207365636f6e6473": 3263,
      "##336cb": 3264,
      "##33382e39": 3265,
      "##ename": 3266,
      "##ence": 3267,
      "##enprint": 3268,
      "##rce": 3269,
      "##ersist": 3270,
      "##area": 3271,
      "##aris": 3272,
      "##arwar": 3273,
      "##arset": 3274,
      "##armor": 3275,
      "2118": 3276,
      "##89e380": 3277,
      "##8902": 3278,
      "##8981": 3279,
      "##89424": 3280,
      "##89832": 3281,
      "##73ab": 3282,
      "##73c2": 3283,
      "##7376": 3284,
      "##736f6e": 3285,
      "##7379": 3286,
      "##73696e": 3287,
      "##73134": 3288,
      "##7312e30": 3289,
      "##7362": 3290,
      "##732042": 3291,
      "##icom": 3292,
      "##icework": 3293,
      "##orer": 3294,
      "##orec": 3295,
      "##orts": 3296,
      "##orage": 3297,
      "##ormst": 3298,
      "insp": 3299,
      "inert": 3300,
      "inode": 3301,
      "indicator": 3302,
      "inval": 3303,
      "##865636b20": 3304,
      "1995": 3305,
      "##ibrate": 3306,
      "##ometh": 3307,
      "##312e": 3308,
      "##313332": 3309,
      "##3138207365636f6e6473": 3310,
      "##313134": 3311,
      "##65ec": 3312,
      "##6572": 3313,
      "##6502": 3314,
      "##6577": 3315,
      "##65ug": 3316,
      "##65e1": 3317,
      "##eaders": 3318,
      "##iler": 3319,
      "##iles": 3320,
      "2444": 3321,
      "2448": 3322,
      "24820": 3323,
      "2238": 3324,
      "2220": 3325,
      "2232": 3326,
      "2270": 3327,
      "header": 3328,
      "##acs": 3329,
      "##acy": 3330,
      "##acem": 3331,
      "##ac99": 3332,
      "##acf6": 3333,
      "##ac08": 3334,
      "##active": 3335,
      "##acco": 3336,
      "##stm": 3337,
      "##ster": 3338,
      "##store": 3339,
      "##stub": 3340,
      "##stick": 3341,
      "##storage": 3342,
      "lib64": 3343,
      "libop": 3344,
      "libint": 3345,
      "libjs": 3346,
      "libnot": 3347,
      "libxm": 3348,
      "libwc": 3349,
      "libway": 3350,
      "libsign": 3351,
      "libgsm": 3352,
      "libxpt": 3353,
      "libk5cr": 3354,
      "shtml": 3355,
      "sh2a": 3356,
      "shiel": 3357,
      "mous": 3358,
      "##c803a": 3359,
      "##c8211": 3360,
      "##6464": 3361,
      "##64617465": 3362,
      "##643bc": 3363,
      "##649134": 3364,
      "##64231": 3365,
      "##64796e": 3366,
      "64x64": 3367,
      "##roll": 3368,
      "##eter": 3369,
      "##etion": 3370,
      "##etoot": 3371,
      "##etry": 3372,
      "2559": 3373,
      "2586": 3374,
      "2532": 3375,
      "2561": 3376,
      "2514": 3377,
      "2587": 3378,
      "25137": 3379,
      "##dee19": 3380,
      "##debu": 3381,
      "##demir": 3382,
      "##olvconf": 3383,
      "##6f6f": 3384,
      "##6f6e2": 3385,
      "##6fcaa": 3386,
      "##6f63bc": 3387,
      "2378": 3388,
      "2324": 3389,
      "23052": 3390,
      "2074": 3391,
      "20ch": 3392,
      "202020": 3393,
      "2089424": 3394,
      "##rie0": 3395,
      "##rimct": 3396,
      "##7cb8": 3397,
      "##7c337c": 3398,
      "gnumeric": 3399,
      "##ulex": 3400,
      "##31373134": 3401,
      "##ache": 3402,
      "##emp": 3403,
      "##emap": 3404,
      "##emetry": 3405,
      "##cluster": 3406,
      "binding": 3407,
      "includedir": 3408,
      "obex": 3409,
      "##185": 3410,
      "##1836": 3411,
      "##18504": 3412,
      "##18d33": 3413,
      "1764": 3414,
      "1792": 3415,
      "1777": 3416,
      "cachec": 3417,
      "##ebrows": 3418,
      "##ebsdlike": 3419,
      "##eb73ab": 3420,
      "##cb6d": 3421,
      "##cb89e380": 3422,
      "##abled": 3423,
      "##d8hg": 3424,
      "##322e30": 3425,
      "##3237": 3426,
      "##322e363": 3427,
      "##32array": 3428,
      "##32342e": 3429,
      "##32e6e": 3430,
      "##327c337c": 3431,
      "##ot36": 3432,
      "##ericalbl": 3433,
      "gensec": 3434,
      "dela": 3435,
      "delh": 3436,
      "decnet": 3437,
      "##edesktop": 3438,
      "##edential": 3439,
      "##formin": 3440,
      "adj": 3441,
      "##adcast": 3442,
      "##istic": 3443,
      "##elsi": 3444,
      "##elog": 3445,
      "##elink": 3446,
      "webap": 3447,
      "webide": 3448,
      "webidl": 3449,
      "webstorage": 3450,
      "sync": 3451,
      "synt": 3452,
      "##minut": 3453,
      "chang": 3454,
      "ch68": 3455,
      "charset": 3456,
      "chelsi": 3457,
      "##ec94": 3458,
      "##ecdb": 3459,
      "##ecf2": 3460,
      "##econf": 3461,
      "##echase": 3462,
      "##1961": 3463,
      "##1950": 3464,
      "##19f7f": 3465,
      "devps": 3466,
      "updating": 3467,
      "##9963": 3468,
      "##99586": 3469,
      "##7b098": 3470,
      "##7b207072696e74202431": 3471,
      "mozbase": 3472,
      "mozinst": 3473,
      "##refserv": 3474,
      "##a08": 3475,
      "##a08f": 3476,
      "##a0e95": 3477,
      "##3b72": 3478,
      "distrib": 3479,
      "12016": 3480,
      "##7475": 3481,
      "##7428": 3482,
      "##74978": 3483,
      "##2e8": 3484,
      "##2e63": 3485,
      "##2ee9": 3486,
      "##2e3138207365636f6e6473": 3487,
      "##2fyoc": 3488,
      "##63d5": 3489,
      "##636420": 3490,
      "##634f7b": 3491,
      "##637475": 3492,
      "##it3": 3493,
      "##itter": 3494,
      "##itude": 3495,
      "##italic": 3496,
      "stj": 3497,
      "stop": 3498,
      "store": 3499,
      "stee": 3500,
      "stumbler": 3501,
      "style": 3502,
      "stk11": 3503,
      "starwar": 3504,
      "stormst": 3505,
      "##lan": 3506,
      "##lao": 3507,
      "##land": 3508,
      "##layout": 3509,
      "variab": 3510,
      "definit": 3511,
      "defines": 3512,
      "defrag": 3513,
      "defence": 3514,
      "plot": 3515,
      "plym": 3516,
      "##ansp": 3517,
      "##annel": 3518,
      "##ancing": 3519,
      "##anplu": 3520,
      "##6e76": 3521,
      "##6e5d1": 3522,
      "##6e738": 3523,
      "##6166": 3524,
      "##61786": 3525,
      "platformin": 3526,
      "##78pie": 3527,
      "##78ac08": 3528,
      "##781961": 3529,
      "compl": 3530,
      "commun": 3531,
      "compat": 3532,
      "network": 3533,
      "netcom": 3534,
      "netback": 3535,
      "netbsdlike": 3536,
      "netpol": 3537,
      "netiuc": 3538,
      "##940": 3539,
      "##94d78": 3540,
      "##942ad": 3541,
      "##2d2b": 3542,
      "##2d6d6f74642e": 3543,
      "##2d63d5": 3544,
      "##00080": 3545,
      "##76616c": 3546,
      "##76c50": 3547,
      "16753": 3548,
      "167ff": 3549,
      "##9052": 3550,
      "##308": 3551,
      "##30342e": 3552,
      "##302e3932207365636f6e6473": 3553,
      "##302e3839207365636f6e6473": 3554,
      "##3038332e": 3555,
      "##2f2a": 3556,
      "##2f29c": 3557,
      "506x19": 3558,
      "506572": 3559,
      "##agon": 3560,
      "##aged": 3561,
      "##agonf": 3562,
      "##951ead": 3563,
      "##unts": 3564,
      "##6f7274202f6574632": 3565,
      "##6f718504": 3566,
      "httpclient": 3567,
      "##d696": 3568,
      "1044": 3569,
      "controll": 3570,
      "##78368": 3571,
      "driven": 3572,
      "##eae1r": 3573,
      "##726c": 3574,
      "##726f6e2": 3575,
      "##tcolor": 3576,
      "##tcall": 3577,
      "##tcont": 3578,
      "##2d202e2": 3579,
      "6e6f77202d2035": 3580,
      "6e6f77202d2031373134": 3581,
      "##ami": 3582,
      "##amfs": 3583,
      "arcms": 3584,
      "##ument": 3585,
      "##uments": 3586,
      "##yple": 3587,
      "##yp6n": 3588,
      "##756d": 3589,
      "##75459": 3590,
      "##thigh": 3591,
      "##chable": 3592,
      "##check": 3593,
      "##channel": 3594,
      "##gint": 3595,
      "##ginuid": 3596,
      "##config": 3597,
      "theme": 3598,
      "thew": 3599,
      "##8500": 3600,
      "##850d5": 3601,
      "##858006": 3602,
      "##8589832": 3603,
      "##85cb6d": 3604,
      "##oudm": 3605,
      "##le9y": 3606,
      "##pt2": 3607,
      "##pture": 3608,
      "##pteae1r": 3609,
      "reflect": 3610,
      "##reen": 3611,
      "##report": 3612,
      "##regs": 3613,
      "##6c7362": 3614,
      "##pse": 3615,
      "##psy": 3616,
      "##enses": 3617,
      "1810": 3618,
      "18479": 3619,
      "docs": 3620,
      "docker": 3621,
      "document": 3622,
      "exec": 3623,
      "expl": 3624,
      "expert": 3625,
      "imap": 3626,
      "mission": 3627,
      "might": 3628,
      "##6d6e5d1": 3629,
      "##bae": 3630,
      "##bai": 3631,
      "##baf0": 3632,
      "##baae2": 3633,
      "js1": 3634,
      "jsm": 3635,
      "##rer2": 3636,
      "##3737207365636f6e6473": 3637,
      "##3735207365636f6e6473": 3638,
      "##3736207365636f6e6473": 3639,
      "##3730207365636f6e6473": 3640,
      "##omisework": 3641,
      "etcdir": 3642,
      "##9a41": 3643,
      "##39322e30": 3644,
      "##667": 3645,
      "##66202d": 3646,
      "##66859": 3647,
      "##2e3036207365636f6e6473": 3648,
      "strnc": 3649,
      "##b140": 3650,
      "##b149": 3651,
      "##bound": 3652,
      "##book": 3653,
      "shmmn": 3654,
      "htmlpar": 3655,
      "2825": 3656,
      "2844": 3657,
      "28079": 3658,
      "48235": 3659,
      "48x48": 3660,
      "5554": 3661,
      "55w9u": 3662,
      "7033": 3663,
      "7017": 3664,
      "7045573": 3665,
      "##ce500": 3666,
      "##ce5d19": 3667,
      "##9f618c": 3668,
      "##lip": 3669,
      "##liss": 3670,
      "##lipse": 3671,
      "##ueue": 3672,
      "##3332207365636f6e6473": 3673,
      "##33322e3635207365636f6e6473": 3674,
      "128x12": 3675,
      "2557": 3676,
      "26096": 3677,
      "26005": 3678,
      "30x20": 3679,
      "3216": 3680,
      "32x32": 3681,
      "44824": 3682,
      "44628": 3683,
      "91dyp": 3684,
      "90x94": 3685,
      "9792": 3686,
      "97hi": 3687,
      "##260": 3688,
      "##2626": 3689,
      "##263816": 3690,
      "2577": 3691,
      "25706": 3692,
      "15235": 3693,
      "1658589832": 3694,
      "164376": 3695,
      "200308": 3696,
      "355ba": 3697,
      "36x36": 3698,
      "454x": 3699,
      "4100": 3700,
      "4377": 3701,
      "7519": 3702,
      "8092": 3703,
      "82159": 3704,
      "99189": 3705,
      "tables": 3706,
      "##b6bae": 3707,
      "##user": 3708,
      "135824": 3709,
      "##ea0d4": 3710,
      "1015753": 3711,
      "1024": 3712,
      "##entprefserv": 3713,
      "11796": 3714,
      "212635": 3715,
      "1245": 3716,
      "122781961": 3717,
      "19575459": 3718,
      "24575": 3719,
      "243520": 3720,
      "22138": 3721,
      "22882": 3722,
      "25344": 3723,
      "23964": 3724,
      "23587": 3725,
      "23420": 3726,
      "205831": 3727,
      "20712": 3728,
      "17136": 3729,
      "172852": 3730,
      "##cb87ab1": 3731,
      "appdata": 3732,
      "16011": 3733,
      "img3": 3734,
      "img4": 3735,
      "enable": 3736,
      "engli": 3737,
      "scp": 3738,
      "screens": 3739,
      "scalable": 3740,
      "untri": 3741,
      "unres": 3742,
      "unconf": 3743,
      "unset": 3744,
      "unkn": 3745,
      "unrea": 3746,
      "unsaf": 3747,
      "##3438207365636f6e6473": 3748,
      "##34332e34": 3749,
      "##34362e313": 3750,
      "##34015": 3751,
      "##342924": 3752,
      "ip6": 3753,
      "ip32": 3754,
      "##exec": 3755,
      "##expon": 3756,
      "##exts": 3757,
      "##exnc": 3758,
      "##ope": 3759,
      "##op5": 3760,
      "memstick": 3761,
      "parport": 3762,
      "parsable": 3763,
      "##ig940": 3764,
      "client0": 3765,
      "##esse": 3766,
      "##essure": 3767,
      "##ectory": 3768,
      "memory24": 3769,
      "memory15": 3770,
      "memory97": 3771,
      "memory185": 3772,
      "memory260": 3773,
      "taskcluster": 3774,
      "repl": 3775,
      "report": 3776,
      "rewri": 3777,
      "##sive": 3778,
      "##roidlib": 3779,
      "dirs": 3780,
      "director": 3781,
      "dircolor": 3782,
      "dirlist": 3783,
      "directory": 3784,
      "dark": 3785,
      "darker": 3786,
      "nodes": 3787,
      "props": 3788,
      "product": 3789,
      "production": 3790,
      "##36af": 3791,
      "##3633207365636f6e6473": 3792,
      "##3697": 3793,
      "##369i": 3794,
      "##36865636b20": 3795,
      "##36312e": 3796,
      "##701": 3797,
      "##70202d": 3798,
      "##7028": 3799,
      "##70bd": 3800,
      "##70cd1": 3801,
      "##7064617465": 3802,
      "##706f7274202f6574632": 3803,
      "##own": 3804,
      "##ponsive": 3805,
      "interv": 3806,
      "int32array": 3807,
      "00apt": 3808,
      "ata": 3809,
      "atm": 3810,
      "ata4": 3811,
      "atob": 3812,
      "at73c2": 3813,
      "at76c50": 3814,
      "blst": 3815,
      "bltest": 3816,
      "static": 3817,
      "6e6f77202d20323130": 3818,
      "6e6f77202d20323339": 3819,
      "6e6f77202d2032313332": 3820,
      "6e6f77202d20323038332e": 3821,
      "emma": 3822,
      "emulator": 3823,
      "emblem": 3824,
      "emacs": 3825,
      "emulex": 3826,
      "resolvconf": 3827,
      "responsive": 3828,
      "xfconf": 3829,
      "##ewzue": 3830,
      "##putcont": 3831,
      "##erver": 3832,
      "build": 3833,
      "cros": 3834,
      "##35207365636f6e6473": 3835,
      "##3537207365636f6e6473": 3836,
      "##3538207365636f6e6473": 3837,
      "##353134": 3838,
      "##3539207365636f6e6473": 3839,
      "##352e3637207365636f6e6473": 3840,
      "##35332e3431207365636f6e6473": 3841,
      "##pca": 3842,
      "##img": 3843,
      "##imjlh": 3844,
      "##quire": 3845,
      "##quenc": 3846,
      "apple": 3847,
      "apply": 3848,
      "applet": 3849,
      "appfind": 3850,
      "applic": 3851,
      "apparmor": 3852,
      "blocklayout": 3853,
      "prompt": 3854,
      "prometh": 3855,
      "promisework": 3856,
      "pressure": 3857,
      "path": 3858,
      "##ffice": 3859,
      "##ff92": 3860,
      "##ffc40": 3861,
      "##ff7c8": 3862,
      "##ff2f29c": 3863,
      "##script": 3864,
      "##screen": 3865,
      "##scope": 3866,
      "##11c": 3867,
      "##11wrap": 3868,
      "##24kxh": 3869,
      "basic": 3870,
      "basename": 3871,
      "make": 3872,
      "makef": 3873,
      "sourcemap": 3874,
      "##smgr": 3875,
      "##xeddb": 3876,
      "##3133207365636f6e6473": 3877,
      "6e6f77202d20333130": 3878,
      "6e6f77202d2033313134": 3879,
      "lost": 3880,
      "look": 3881,
      "loader": 3882,
      "loginuid": 3883,
      "loop5": 3884,
      "perf": 3885,
      "percent": 3886,
      "perchannel": 3887,
      "virtio": 3888,
      "##tr4j": 3889,
      "##trdma": 3890,
      "##bukh": 3891,
      "##803": 3892,
      "##80189": 3893,
      "##ellia": 3894,
      "##androidlib": 3895,
      "cpu5": 3896,
      "cpu4": 3897,
      "packaging": 3898,
      "redux": 3899,
      "reduc": 3900,
      "seccom": 3901,
      "server": 3902,
      "servicework": 3903,
      "##502e2": 3904,
      "##16array": 3905,
      "##1604": 3906,
      "##167b098": 3907,
      "##ostscript": 3908,
      "usb2": 3909,
      "usbip": 3910,
      "adduser": 3911,
      "httpserver": 3912,
      "thirdpar": 3913,
      "powerpc": 3914,
      "cos": 3915,
      "codemir": 3916,
      "freebsdlike": 3917,
      "freedesktop": 3918,
      "frequenc": 3919,
      "hwmon": 3920,
      "hwregs": 3921,
      "host0": 3922,
      "hostname": 3923,
      "hostnam": 3924,
      "law": 3925,
      "sdb": 3926,
      "sdric": 3927,
      "super": 3928,
      "##shake": 3929,
      "##sh0su": 3930,
      "##mdd2": 3931,
      "##plechase": 3932,
      "##ify": 3933,
      "##ifest": 3934,
      "##ore32": 3935,
      "resource": 3936,
      "requests": 3937,
      "arliss": 3938,
      "cron": 3939,
      "crate": 3940,
      "credential": 3941,
      "fileman": 3942,
      "green": 3943,
      "greybird": 3944,
      "greeter": 3945,
      "white": 3946,
      "##14c6f": 3947,
      "##109": 3948,
      "##10bf2a5": 3949,
      "##1011c": 3950,
      "##msw": 3951,
      "##pkij": 3952,
      "##keins": 3953,
      "scripts": 3954,
      "scripted": 3955,
      "6e6f77202d2033303830": 3956,
      "6e6f77202d2033303339": 3957,
      "6e6f77202d2033303336": 3958,
      "6e6f77202d2033303838": 3959,
      "6e6f77202d20333038372e38": 3960,
      "6e6f77202d20333033342e": 3961,
      "6e6f77202d20333032342e": 3962,
      "6e6f77202d20333034362e313": 3963,
      "avm": 3964,
      "avx": 3965,
      "dbtf": 3966,
      "dbgp": 3967,
      "listdir": 3968,
      "match": 3969,
      "newhome": 3970,
      "side": 3971,
      "si470": 3972,
      "tty2": 3973,
      "tty25": 3974,
      "ttys16": 3975,
      "##af02": 3976,
      "##af94d78": 3977,
      "##372e3237207365636f6e6473": 3978,
      "##37eab0ff": 3979,
      "##402": 3980,
      "##4096": 3981,
      "##40be38": 3982,
      "##llib": 3983,
      "##prompt": 3984,
      "##ators": 3985,
      "##outdebu": 3986,
      "sourceeditor": 3987,
      "mochij": 3988,
      "mochikit": 3989,
      "caps": 3990,
      "capture": 3991,
      "clos": 3992,
      "clz4": 3993,
      "man5": 3994,
      "manifest": 3995,
      "neon": 3996,
      "news": 3997,
      "queries": 3998,
      "vmxnet": 3999,
      "##ee038": 4000,
      "##dows": 4001,
      "##9284": 4002,
      "##79d0": 4003,
      "links": 4004,
      "link4": 4005,
      "##string": 4006,
      "##strap": 4007,
      "##2e3930207365636f6e6473": 4008,
      "##2e3934207365636f6e6473": 4009,
      "##2e3936207365636f6e6473": 4010,
      "##angelog": 4011,
      "transl": 4012,
      "##ypto3": 4013,
      "example": 4014,
      "domain0": 4015,
      "6e6f77202d203133383336": 4016,
      "6e6f77202d2031333833332e3431207365636f6e6473": 4017,
      "6e6f77202d2031333833322e3635207365636f6e6473": 4018,
      "6e6f77202d2031333835332e3431207365636f6e6473": 4019,
      "autopsy": 4020,
      "dpkgstat": 4021,
      "accel": 4022,
      "acquire": 4023,
      "daq": 4024,
      "da9052": 4025,
      "feature": 4026,
      "feat1": 4027,
      "gflz": 4028,
      "geckoview": 4029,
      "idl": 4030,
      "idx": 4031,
      "idrc": 4032,
      "macbuild": 4033,
      "pine4": 4034,
      "spell": 4035,
      "spyd": 4036,
      "sports": 4037,
      "setutc": 4038,
      "##e4365": 4039,
      "##1544": 4040,
      "##b0cd5": 4041,
      "##b0zsc": 4042,
      "##b0ef3a": 4043,
      "##oks": 4044,
      "##pxh2": 4045,
      "##isodes": 4046,
      "##workspace": 4047,
      "##workergl": 4048,
      "##indness": 4049,
      "##alloc": 4050,
      "##ontrol": 4051,
      "##202d69": 4052,
      "##332e3538207365636f6e6473": 4053,
      "libv4l": 4054,
      "##3130207365636f6e6473": 4055,
      "sharedworkergl": 4056,
      "##2e3234207365636f6e6473": 4057,
      "##2e3235207365636f6e6473": 4058,
      "statedir": 4059,
      "statements": 4060,
      "commonjs": 4061,
      "profiler": 4062,
      "intl402": 4063,
      "6e6f77202d2032393830": 4064,
      "6e6f77202d2032393838": 4065,
      "6e6f77202d20323938362e313": 4066,
      "log2": 4067,
      "logig940": 4068,
      "gtk2": 4069,
      "##62696e3a2f7573722f": 4070,
      "##62696e3a2f7362696e3a2f": 4071,
      "crashtests": 4072,
      "crashreport": 4073,
      "##7573722f62696": 4074,
      "##7573722f62696e3a2f7362696e3a2f": 4075,
      "5e4e6578": 4076,
      "5e436865636b20": 4077,
      "brd": 4078,
      "branding": 4079,
      "browsing": 4080,
      "bootmem": 4081,
      "bootstrap": 4082,
      "comedyple": 4083,
      "dragonf": 4084,
      "eclipse": 4085,
      "i2o": 4086,
      "mapper": 4087,
      "oneconf": 4088,
      "skin": 4089,
      "sketch": 4090,
      "version": 4091,
      "vimbev": 4092,
      "xpidl": 4093,
      "xptcall": 4094,
      "xhdp": 4095,
      "##teon": 4096,
      "##a5xle": 4097,
      "##d5d4": 4098,
      "##1200": 4099,
      "##601": 4100,
      "##696e746572": 4101,
      "##4ah": 4102,
      "##7f9a41": 4103,
      "##ogle": 4104,
      "##odeproj": 4105,
      "##ynzjs": 4106,
      "##ucation": 4107,
      "##xt7x": 4108,
      "mountall": 4109,
      "##2e3135207365636f6e6473": 4110,
      "##2e3132207365636f6e6473": 4111,
      "##control": 4112,
      "##contentprefserv": 4113,
      "missle": 4114,
      "##342e3633207365636f6e6473": 4115,
      "6e6f77202d2032343339": 4116,
      "6e6f77202d2032343335": 4117,
      "6e6f77202d20323430342e": 4118,
      "6e6f77202d20323434332e34": 4119,
      "bug564": 4120,
      "bug299": 4121,
      "bug649134": 4122,
      "extension1": 4123,
      "mainmenu": 4124,
      "##obalscope": 4125,
      "bb2g": 4126,
      "backend": 4127,
      "cnjfj": 4128,
      "cpython": 4129,
      "cpanplu": 4130,
      "colorspace": 4131,
      "dmz": 4132,
      "dmg": 4133,
      "dmesg": 4134,
      "debian": 4135,
      "education": 4136,
      "events": 4137,
      "foo": 4138,
      "found": 4139,
      "force": 4140,
      "fontcolor": 4141,
      "goffice": 4142,
      "google": 4143,
      "m55te": 4144,
      "mmc": 4145,
      "method": 4146,
      "nscontentprefserv": 4147,
      "ps3": 4148,
      "pset": 4149,
      "pkg": 4150,
      "pki": 4151,
      "pk11wrap": 4152,
      "preferenc": 4153,
      "rc0": 4154,
      "rcp": 4155,
      "serpent": 4156,
      "selftest": 4157,
      "twitter": 4158,
      "twimg": 4159,
      "temp": 4160,
      "urllib": 4161,
      "uitp": 4162,
      "valid": 4163,
      "xcv1op": 4164,
      "xcworkspace": 4165,
      "xcodeproj": 4166,
      "##dka1": 4167,
      "##97ec94": 4168,
      "##13783": 4169,
      "##1365e1": 4170,
      "##300a74": 4171,
      "##300c89": 4172,
      "##30021": 4173,
      "##6974202f6574632": 4174,
      "##69637475": 4175,
      "##6b2e63": 4176,
      "##41502e2": 4177,
      "##48cf4": 4178,
      "##brk": 4179,
      "##bdlg": 4180,
      "##bdd5d4": 4181,
      "##8a60": 4182,
      "##8a1950": 4183,
      "##81a08f": 4184,
      "##lheaders": 4185,
      "##permission": 4186,
      "##ymap": 4187,
      "##yuwc": 4188,
      "##kze": 4189,
      "##kzf6": 4190,
      "##kjybg": 4191,
      "##kjwgc": 4192,
      "##e2072756e2d7061727473202d2d": 4193,
      "##38302e3138207365636f6e6473": 4194,
      "##33362e3932207365636f6e6473": 4195,
      "##7362696e3a2f7573722f6c6f63616c2f": 4196,
      "##7362696e3a2f7573722f62696e3a2f7362696e3a2f": 4197,
      "infl": 4198,
      "indexeddb": 4199,
      "libloudm": 4200,
      "##64203e202f": 4201,
      "checkout": 4202,
      "##616d696": 4203,
      "##7265706f7274202f6574632": 4204,
      "there": 4205,
      "downl": 4206,
      "##852803": 4207,
      "mime": 4208,
      "##392e3730207365636f6e6473": 4209,
      "##392e3332207365636f6e6473": 4210,
      "##392e3130207365636f6e6473": 4211,
      "interactive": 4212,
      "6e6f77202d20323039352e": 4213,
      "6e6f77202d20323039332e3538207365636f6e6473": 4214,
      "6e6f77202d20323039392e3332207365636f6e6473": 4215,
      "embedding": 4216,
      "6e6f77202d2031333733382e39": 4217,
      "6e6f77202d2031333738302e3138207365636f6e6473": 4218,
      "6e6f77202d2031333733362e3932207365636f6e6473": 4219,
      "subtre": 4220,
      "sudoku": 4221,
      "filesystem": 4222,
      "actionextension": 4223,
      "simplec": 4224,
      "##742063686": 4225,
      "textarea": 4226,
      "certificate": 4227,
      "gvfsd": 4228,
      "ignorec": 4229,
      "umbrialog": 4230,
      "##72756e2f6d6f74642e": 4231,
      "3qbp": 4232,
      "3qjnq": 4233,
      "310178": 4234,
      "310858006": 4235,
      "7zip": 4236,
      "7zstub": 4237,
      "8390": 4238,
      "annot": 4239,
      "annex": 4240,
      "alsa": 4241,
      "alteon": 4242,
      "aufs": 4243,
      "audio": 4244,
      "boye": 4245,
      "books": 4246,
      "blueman": 4247,
      "bluetoot": 4248,
      "cs46xx": 4249,
      "curr": 4250,
      "cudd": 4251,
      "carma": 4252,
      "cargo": 4253,
      "desktop1604": 4254,
      "fxayn": 4255,
      "fxacco": 4256,
      "gdi32": 4257,
      "gdykh": 4258,
      "groff": 4259,
      "groups": 4260,
      "ipdl": 4261,
      "ipdlheaders": 4262,
      "keyring": 4263,
      "keymap": 4264,
      "mnt": 4265,
      "mc13783": 4266,
      "marvell": 4267,
      "markeins": 4268,
      "mtrr": 4269,
      "mtransp": 4270,
      "native": 4271,
      "offline": 4272,
      "offscreen": 4273,
      "ram0": 4274,
      "ram11": 4275,
      "srv": 4276,
      "srtp": 4277,
      "toexpon": 4278,
      "tllao": 4279,
      "tumblerd": 4280,
      "vp9": 4281,
      "vp8": 4282,
      "vga": 4283,
      "windows": 4284,
      "xulstore": 4285,
      "zjfyn": 4286,
      "zjpkij": 4287,
      "##tree": 4288,
      "##rr6ig": 4289,
      "##f56d6e5d1": 4290,
      "##f4o": 4291,
      "##f75726c": 4292,
      "##f757064617465": 4293,
      "##9d34015": 4294,
      "##51ed8": 4295,
      "##57327": 4296,
      "##586b": 4297,
      "##3qi2l": 4298,
      "##6709": 4299,
      "##6704dc": 4300,
      "##49b5f": 4301,
      "##43ff2f29c": 4302,
      "##2bot36": 4303,
      "##2357": 4304,
      "##backend": 4305,
      "##83d2f": 4306,
      "##83ce500": 4307,
      "##84601": 4308,
      "##8250": 4309,
      "##7a5e7": 4310,
      "##7a5b8a": 4311,
      "##mvv9q": 4312,
      "##manager": 4313,
      "##zzyfla": 4314,
      "##gger": 4315,
      "##gging": 4316,
      "##ystick": 4317,
      "##ubq81": 4318,
      "##x2s": 4319,
      "##x266": 4320,
      "##x192": 4321,
      "##kesj4k": 4322,
      "##00631": 4323,
      "19264231": 4324,
      "192x192": 4325,
      "model": 4326,
      "objects": 4327,
      "##325af02": 4328,
      "processor": 4329,
      "processing": 4330,
      "##2f207b207072696e74202431": 4331,
      "##2f202626": 4332,
      "##6352e3235207365636f6e6473": 4333,
      "##616c2041": 4334,
      "6e6f77202d2031303237": 4335,
      "6e6f77202d20313036312e": 4336,
      "6e6f77202d2031343839": 4337,
      "6e6f77202d203134353134": 4338,
      "architectures": 4339,
      "architecture": 4340,
      "thumbnail": 4341,
      "##outh1": 4342,
      "##legal": 4343,
      "##legacy": 4344,
      "##9ae70": 4345,
      "##9ae9ae70": 4346,
      "pycache": 4347,
      "##7465723a": 4348,
      "environ": 4349,
      "unicode": 4350,
      "unicore32": 4351,
      "memory233": 4352,
      "memory226": 4353,
      "memory144": 4354,
      "regress": 4355,
      "regression": 4356,
      "regexp": 4357,
      "projecteditor": 4358,
      "internal": 4359,
      "internode": 4360,
      "##352e3438207365636f6e6473": 4361,
      "6e6f77202d20333132382e3635207365636f6e6473": 4362,
      "6e6f77202d20333132322e363": 4363,
      "6e6f77202d2031333737312e30": 4364,
      "6e6f77202d2031333736352e3235207365636f6e6473": 4365,
      "freezer": 4366,
      "whoami": 4367,
      "##62696e2072756e2d7061727473202d2d": 4368,
      "classic": 4369,
      "6e6f77202d2031333834302e3839207365636f6e6473": 4370,
      "6e6f77202d2031333834342e3633207365636f6e6473": 4371,
      "##b0fff56d6e5d1": 4372,
      "6e6f77202d20323939302e3932207365636f6e6473": 4373,
      "6e6f77202d20323939352e3637207365636f6e6473": 4374,
      "5e4d6f756e7420636f756e743a": 4375,
      "5e4d61786": 4376,
      "collate": 4377,
      "collator": 4378,
      "debugger": 4379,
      "event2": 4380,
      "passwordmgr": 4381,
      "serial8250": 4382,
      "selectors": 4383,
      "template": 4384,
      "templates": 4385,
      "##726573732042": 4386,
      "##7265732f2a": 4387,
      "interface": 4388,
      "interfaces": 4389,
      "gstreamer1": 4390,
      "gstreamer0": 4391,
      "microdata": 4392,
      "microbla": 4393,
      "nullbackend": 4394,
      "openbsdlike": 4395,
      "pnp0100": 4396,
      "pnp0a08": 4397,
      "seeking": 4398,
      "target0": 4399,
      "##5636b206166": 4400,
      "##372e3830207365636f6e6473": 4401,
      "initrd": 4402,
      "initramfs": 4403,
      "constructor": 4404,
      "construction": 4405,
      "##7072696e742024317d": 4406,
      "suupdatealert": 4407,
      "suupdatepermission": 4408,
      "##7573722f6c6f63616c2f7362696e3a2f7573722f6c6f63616c2f": 4409,
      "backgrounds": 4410,
      "032018": 4411,
      "0004096": 4412,
      "0000072": 4413,
      "189x14": 4414,
      "161580": 4415,
      "1z4ynzjs": 4416,
      "2f7573722f62696": 4417,
      "2abfc59": 4418,
      "2d6420": 4419,
      "2938": 4420,
      "2944": 4421,
      "2958": 4422,
      "3118d33": 4423,
      "3ac5b": 4424,
      "36f986": 4425,
      "4nwmvs": 4426,
      "4d951ead": 4427,
      "4qtag": 4428,
      "438852803": 4429,
      "4332": 4430,
      "4392": 4431,
      "5v7j": 4432,
      "574x266": 4433,
      "6812": 4434,
      "6hhzz": 4435,
      "69axyan": 4436,
      "680263816": 4437,
      "7b7072696e742024317d": 4438,
      "77315": 4439,
      "7902": 4440,
      "7704": 4441,
      "736370202d": 4442,
      "760x33": 4443,
      "7d1af94d78": 4444,
      "8rvzm": 4445,
      "88e11": 4446,
      "86400": 4447,
      "89cbfd92": 4448,
      "9fb0cd5": 4449,
      "9rg24kxh": 4450,
      "ae942ad": 4451,
      "a2yp6n": 4452,
      "aboutdebu": 4453,
      "aardv": 4454,
      "aic7xx": 4455,
      "arguments": 4456,
      "amso11": 4457,
      "a543b72": 4458,
      "azmxt7x": 4459,
      "bcm": 4460,
      "bdi": 4461,
      "b5rer2": 4462,
      "bigint": 4463,
      "bytes": 4464,
      "bxrym": 4465,
      "balancing": 4466,
      "benet": 4467,
      "broadcast": 4468,
      "belocs": 4469,
      "bitstring": 4470,
      "b16pov": 4471,
      "bangersist": 4472,
      "ballistic": 4473,
      "bf2979": 4474,
      "b43legacy": 4475,
      "bolditalic": 4476,
      "c6imjlh": 4477,
      "cxgb4v": 4478,
      "cw1200": 4479,
      "cjk": 4480,
      "certhigh": 4481,
      "calibrate": 4482,
      "caca": 4483,
      "clutter": 4484,
      "clang": 4485,
      "camellia": 4486,
      "cuc9l": 4487,
      "cgroup": 4488,
      "dnkcen": 4489,
      "dc300c89": 4490,
      "dlmdd2": 4491,
      "dvjvb": 4492,
      "dstn80": 4493,
      "dc233c": 4494,
      "dturm": 4495,
      "dio24": 4496,
      "davinci": 4497,
      "drawable": 4498,
      "disabled": 4499,
      "dialog": 4500,
      "dyna": 4501,
      "et1011c": 4502,
      "e057f": 4503,
      "episodes": 4504,
      "egyaw": 4505,
      "ejsh0su": 4506,
      "ead29a": 4507,
      "ebay": 4508,
      "escp2": 4509,
      "espeak": 4510,
      "fuzzyfla": 4511,
      "fennec": 4512,
      "forms": 4513,
      "fiberla": 4514,
      "fingerprint": 4515,
      "ftplugin": 4516,
      "forkexec": 4517,
      "ftrandom": 4518,
      "foreign": 4519,
      "flyweb": 4520,
      "fastcal": 4521,
      "gspca": 4522,
      "gbk": 4523,
      "ghostscript": 4524,
      "gi1k": 4525,
      "gkrust": 4526,
      "girbil": 4527,
      "grip": 4528,
      "gadget": 4529,
      "gutenprint": 4530,
      "gma500": 4531,
      "hmac": 4532,
      "hplip": 4533,
      "hyphen": 4534,
      "hourly": 4535,
      "hexagon": 4536,
      "handshake": 4537,
      "hisax": 4538,
      "hystericalbl": 4539,
      "holders": 4540,
      "icmp": 4541,
      "illegal": 4542,
      "impl": 4543,
      "i40e": 4544,
      "ivsb0zsc": 4545,
      "ih2q3kj": 4546,
      "joystick": 4547,
      "jpeg": 4548,
      "jarpt2": 4549,
      "jemalloc": 4550,
      "jrockit": 4551,
      "junit3": 4552,
      "jqueryu": 4553,
      "jdk1": 4554,
      "kdwird": 4555,
      "kukzf6": 4556,
      "kvm": 4557,
      "kprobes": 4558,
      "kmemcheck": 4559,
      "lnxsy": 4560,
      "l2kesj4k": 4561,
      "lhle9y": 4562,
      "lgpl": 4563,
      "lwbrk": 4564,
      "large": 4565,
      "licenses": 4566,
      "leds": 4567,
      "lady": 4568,
      "lasat": 4569,
      "litelink": 4570,
      "mfd": 4571,
      "mybook": 4572,
      "mqueue": 4573,
      "mkdir": 4574,
      "malware": 4575,
      "middle": 4576,
      "mumbai": 4577,
      "mpt3sas": 4578,
      "musb": 4579,
      "mvsas": 4580,
      "mktemp": 4581,
      "nmi": 4582,
      "nuv15": 4583,
      "nk2bot36": 4584,
      "nested": 4585,
      "nicer": 4586,
      "nilfs2": 4587,
      "nightly": 4588,
      "number": 4589,
      "oauth": 4590,
      "ocfs2": 4591,
      "osrng": 4592,
      "ovik": 4593,
      "oqpxh2": 4594,
      "octeon": 4595,
      "outbound": 4596,
      "oprofile": 4597,
      "pppteae1r": 4598,
      "pvlan": 4599,
      "pqwex": 4600,
      "pinning": 4601,
      "polkit": 4602,
      "pulse": 4603,
      "passmgr": 4604,
      "pancho": 4605,
      "p3040": 4606,
      "pagination": 4607,
      "ppcertd": 4608,
      "port2": 4609,
      "photo": 4610,
      "pmbus": 4611,
      "qt5": 4612,
      "qlen": 4613,
      "qgkbo": 4614,
      "qqkkh": 4615,
      "qvs1l": 4616,
      "q5fwmn": 4617,
      "rbtree": 4618,
      "roller": 4619,
      "radio": 4620,
      "rimapd": 4621,
      "reckoning": 4622,
      "route": 4623,
      "s390": 4624,
      "s6000": 4625,
      "salt": 4626,
      "sibyte": 4627,
      "silicom": 4628,
      "solaris": 4629,
      "slub": 4630,
      "samba": 4631,
      "summvv9q": 4632,
      "sopran": 4633,
      "sections": 4634,
      "sandbox": 4635,
      "sshd": 4636,
      "safebrows": 4637,
      "sf62fyoc": 4638,
      "sf5ubq81": 4639,
      "ssltap": 4640,
      "txer3v": 4641,
      "trigger": 4642,
      "telemetry": 4643,
      "t7fd8hg": 4644,
      "tvg3qi2l": 4645,
      "uint16array": 4646,
      "vt8500": 4647,
      "vsc8211": 4648,
      "voices": 4649,
      "vitesse": 4650,
      "vmlinuz": 4651,
      "views": 4652,
      "viewconfig": 4653,
      "vdkrimct": 4654,
      "video": 4655,
      "w3m": 4656,
      "w6sj": 4657,
      "w83697": 4658,
      "wiyk": 4659,
      "wea3": 4660,
      "write": 4661,
      "with": 4662,
      "widget": 4663,
      "xls": 4664,
      "xz369i": 4665,
      "xqyuwc": 4666,
      "xk78pie": 4667,
      "xirlink": 4668,
      "xilinx": 4669,
      "xapian": 4670,
      "x509": 4671,
      "xprtrdma": 4672,
      "x5fv6i": 4673,
      "yvdka1": 4674,
      "yafc": 4675,
      "zeuye": 4676,
      "z3z3y": 4677,
      "##edev": 4678,
      "##e7b9d34015": 4679,
      "##e686f75726c": 4680,
      "##e8f850d5": 4681,
      "##fa2e8": 4682,
      "##fc0h": 4683,
      "##f20519": 4684,
      "##fdeeb73ab": 4685,
      "##f63726f6e2": 4686,
      "##f5069637475": 4687,
      "##a900080": 4688,
      "##a22ee9": 4689,
      "##a7ca": 4690,
      "##ae9f8981": 4691,
      "##c510bf2a5": 4692,
      "##c66502": 4693,
      "##cea489": 4694,
      "##c94b": 4695,
      "##cf6ql": 4696,
      "##c9d2d63d5": 4697,
      "##cf94ea0d4": 4698,
      "##d0081a08f": 4699,
      "##d9f1365e1": 4700,
      "##932399": 4701,
      "##975vq": 4702,
      "##96d756d": 4703,
      "##9168": 4704,
      "##9db7f9a41": 4705,
      "##57b48d4a": 4706,
      "##5ff1e": 4707,
      "##550fa2e8": 4708,
      "##5e65787428": 4709,
      "##1ef5ff1e": 4710,
      "##1ebae9f8981": 4711,
      "##1ab97ec94": 4712,
      "##1d6634f7b": 4713,
      "##16cc510bf2a5": 4714,
      "##36cffc40": 4715,
      "##3sdpk": 4716,
      "##3e01ab97ec94": 4717,
      "##3f8b140": 4718,
      "##3cabb6e738": 4719,
      "##69908": 4720,
      "##62e3cabb6e738": 4721,
      "##6ab136af": 4722,
      "##4d94586b": 4723,
      "##0jx2s": 4724,
      "##026ecdb": 4725,
      "##0378026ecdb": 4726,
      "##214109": 4727,
      "##bmvig": 4728,
      "##b18c643bc": 4729,
      "##8301ebae9f8981": 4730,
      "##76304": 4731,
      "##790ce5d19": 4732,
      "##711b6bae": 4733,
      "##7e202f5e65787428": 4734,
      "##mvbi": 4735,
      "##oads": 4736,
      "##o5ldo": 4737,
      "##lefish": 4738,
      "##papis": 4739,
      "##zemr": 4740,
      "##hyway": 4741,
      "##hooter": 4742,
      "##hknf": 4743,
      "##xouil": 4744,
      "##qomo8o": 4745,
      "##qacjy": 4746,
      "##k4jxa": 4747,
      "##e2f656e76": 4748,
      "##ef02590c2": 4749,
      "userspace": 4750,
      "localedata": 4751,
      "1302214109": 4752,
      "13081836": 4753,
      "##206d6f756e7420636f756e743a": 4754,
      "##205041544": 4755,
      "##2072756e2d7061727473202d2d7265706f7274202f6574632": 4756,
      "##336cb78ac08": 4757,
      "211880189": 4758,
      "##89027": 4759,
      "##736f6e616c2041": 4760,
      "##737973696e": 4761,
      "inspector": 4762,
      "invalid": 4763,
      "##65ec32": 4764,
      "##65ughx": 4765,
      "22322": 4766,
      "22702": 4767,
      "##acements": 4768,
      "##acf6baf0": 4769,
      "libopus": 4770,
      "libintl": 4771,
      "libjson": 4772,
      "libnotify": 4773,
      "libxmu": 4774,
      "libwayland": 4775,
      "libsignon": 4776,
      "libgsm1": 4777,
      "libk5crypto3": 4778,
      "shield": 4779,
      "mousedev": 4780,
      "##c803a8a1950": 4781,
      "##6464726573732042": 4782,
      "##64796e616d696": 4783,
      "##dee19fdeeb73ab": 4784,
      "##6f6f6b2e63": 4785,
      "##6fcaa711b6bae": 4786,
      "##6f63bc1d6634f7b": 4787,
      "23781": 4788,
      "23241": 4789,
      "207478368": 4790,
      "20changelog": 4791,
      "202020636420": 4792,
      "2089424876": 4793,
      "##7cb8336cb78ac08": 4794,
      "bindings": 4795,
      "includedirs": 4796,
      "obexd": 4797,
      "1792932399": 4798,
      "cachecontrol": 4799,
      "##cb89e38051ed8": 4800,
      "##32e6e6577": 4801,
      "##327c337c342924": 4802,
      "delay": 4803,
      "delhi": 4804,
      "webappapis": 4805,
      "syntax": 4806,
      "##minutes": 4807,
      "changes": 4808,
      "chelsio": 4809,
      "##ecf23f8b140": 4810,
      "##19f7f9db7f9a41": 4811,
      "mozinstall": 4812,
      "##a0e956ab136af": 4813,
      "1201689027": 4814,
      "##74978ee038": 4815,
      "steeplechase": 4816,
      "stk1160": 4817,
      "starwars": 4818,
      "stormstyles": 4819,
      "variables": 4820,
      "definition": 4821,
      "plymouth": 4822,
      "platforminputcont": 4823,
      "completion": 4824,
      "communicator": 4825,
      "networkmanager": 4826,
      "netcommsw": 4827,
      "netpoll": 4828,
      "netiucv": 4829,
      "##2d6d6f74642e64203e202f": 4830,
      "##76616c3a": 4831,
      "1675366859": 4832,
      "167ffe4365": 4833,
      "506x190": 4834,
      "506572736f6e616c2041": 4835,
      "##6f71850474978ee038": 4836,
      "httpclientandroidlib": 4837,
      "controller": 4838,
      "##2d202e2f5069637475": 4839,
      "6e6f77202d203539322e30": 4840,
      "6e6f77202d2031373134392e3130207365636f6e6473": 4841,
      "arcmsr": 4842,
      "thewire": 4843,
      "##85cb6db18c643bc": 4844,
      "##6c7362737973696e": 4845,
      "1847930021": 4846,
      "explorer": 4847,
      "missioncontrol": 4848,
      "##baae219f7f9db7f9a41": 4849,
      "##66202d2d202e2f5069637475": 4850,
      "strncpy": 4851,
      "##b1496f63bc1d6634f7b": 4852,
      "shmmni": 4853,
      "htmlparser": 4854,
      "28255": 4855,
      "28445": 4856,
      "48235820": 4857,
      "55w9ubukh": 4858,
      "704557361": 4859,
      "##9f618ca0e956ab136af": 4860,
      "128x128": 4861,
      "321699586": 4862,
      "448249963": 4863,
      "446287028": 4864,
      "91dypbmvig": 4865,
      "979283039": 4866,
      "97hi975vq": 4867,
      "1523569908": 4868,
      "1643765973": 4869,
      "355ba167b098": 4870,
      "454x50": 4871,
      "99189c9d2d63d5": 4872,
      "1358249168": 4873,
      "1015753701": 4874,
      "1179684601": 4875,
      "2126356709": 4876,
      "1227819613": 4877,
      "1957545951": 4878,
      "2435207e202f5e65787428": 4879,
      "2058319284": 4880,
      "2071200631": 4881,
      "1713676304": 4882,
      "##cb87ab1a900080": 4883,
      "1601157327": 4884,
      "english": 4885,
      "screenshooter": 4886,
      "untriaged": 4887,
      "unconfined": 4888,
      "unknown": 4889,
      "unreachable": 4890,
      "unsafe": 4891,
      "memory240": 4892,
      "replacements": 4893,
      "rewriting": 4894,
      "directories": 4895,
      "dircolors": 4896,
      "dirlisting": 4897,
      "##70bd37eab0ff": 4898,
      "##70cd1b0fff56d6e5d1": 4899,
      "interval": 4900,
      "00aptitude": 4901,
      "at73c213": 4902,
      "at76c50x": 4903,
      "6e6f77202d20323130372e3237207365636f6e6473": 4904,
      "6e6f77202d20323339372e3830207365636f6e6473": 4905,
      "6e6f77202d20323133322e3936207365636f6e6473": 4906,
      "6e6f77202d20323038332e3737207365636f6e6473": 4907,
      "emblems": 4908,
      "##ewzuev": 4909,
      "appfinder": 4910,
      "application": 4911,
      "prompts": 4912,
      "prometheus": 4913,
      "promiseworker": 4914,
      "##ff92cea489": 4915,
      "makefiles": 4916,
      "6e6f77202d20333130352e3438207365636f6e6473": 4917,
      "6e6f77202d20333131342e3234207365636f6e6473": 4918,
      "lookups": 4919,
      "##tr4j0x": 4920,
      "reducers": 4921,
      "seccomp": 4922,
      "serviceworkers": 4923,
      "thirdparty": 4924,
      "codemirror": 4925,
      "frequency": 4926,
      "hostname1": 4927,
      "hostnamed": 4928,
      "sdricoh": 4929,
      "superhyway": 4930,
      "filemanager": 4931,
      "##14c6f43ff2f29c": 4932,
      "6e6f77202d20333038302e3132207365636f6e6473": 4933,
      "6e6f77202d20333033392e3839207365636f6e6473": 4934,
      "6e6f77202d20333033362e3930207365636f6e6473": 4935,
      "6e6f77202d20333038382e3637207365636f6e6473": 4936,
      "6e6f77202d20333038372e3838207365636f6e6473": 4937,
      "6e6f77202d20333033342e3133207365636f6e6473": 4938,
      "6e6f77202d20333032342e3735207365636f6e6473": 4939,
      "6e6f77202d20333034362e3136207365636f6e6473": 4940,
      "dbtfkz": 4941,
      "si470x": 4942,
      "##40be38acf6baf0": 4943,
      "mochijar": 4944,
      "closure": 4945,
      "clz4ke": 4946,
      "vmxnet3": 4947,
      "##79d0c803a8a1950": 4948,
      "translators": 4949,
      "6e6f77202d2031333833362e3135207365636f6e6473": 4950,
      "dpkgstatus": 4951,
      "gflz65ughx": 4952,
      "spyder": 4953,
      "setutcminutes": 4954,
      "##b0ef3a41502e2": 4955,
      "##202d69205041544": 4956,
      "sharedworkerglobalscope": 4957,
      "6e6f77202d20323938302e3237207365636f6e6473": 4958,
      "6e6f77202d20323938382e3934207365636f6e6473": 4959,
      "6e6f77202d20323938362e3135207365636f6e6473": 4960,
      "##62696e3a2f7573722f7362696e3a2f7573722f62696e3a2f7362696e3a2f": 4961,
      "crashreporter": 4962,
      "5e4e6578742063686": 4963,
      "5e436865636b20696e746572": 4964,
      "comedyplex": 4965,
      "dragonfly": 4966,
      "vimbevzemr": 4967,
      "xhdpi": 4968,
      "##a5xlew": 4969,
      "6e6f77202d20323433392e3033207365636f6e6473": 4970,
      "6e6f77202d20323433352e3237207365636f6e6473": 4971,
      "6e6f77202d20323430342e3539207365636f6e6473": 4972,
      "6e6f77202d20323434332e3433207365636f6e6473": 4973,
      "bug564667": 4974,
      "bug299716": 4975,
      "bb2ga5xlew": 4976,
      "cnjfjp": 4977,
      "cpanplus": 4978,
      "m55teq": 4979,
      "nscontentprefservice": 4980,
      "preferences": 4981,
      "##300a746f71850474978ee038": 4982,
      "##6974202f6574632f757064617465": 4983,
      "##48cf465ec32": 4984,
      "##bdlg9": 4985,
      "libloudmouth1": 4986,
      "downloads": 4987,
      "6e6f77202d20323039352e3537207365636f6e6473": 4988,
      "6e6f77202d2031333733382e3933207365636f6e6473": 4989,
      "subtrees": 4990,
      "filesystems": 4991,
      "simplecal": 4992,
      "ignorecase": 4993,
      "umbrialogo": 4994,
      "##72756e2f6d6f74642e64796e616d696": 4995,
      "3qbp7z": 4996,
      "3qjnqkjwgc": 4997,
      "31017840be38acf6baf0": 4998,
      "annotation": 4999,
      "annexb": 5000,
      "bluetooth": 5001,
      "current": 5002,
      "cuddlefish": 5003,
      "fxaynrr6ig": 5004,
      "fxaccounts": 5005,
      "gdykhk4jxa": 5006,
      "mtransport": 5007,
      "toexponential": 5008,
      "zjfyn1": 5009,
      "zjpkijexnc": 5010,
      "##6704dc4d94586b": 5011,
      "##49b5f83ce500": 5012,
      "##83d2f7573722f6c6f63616c2f7362696e3a2f7573722f6c6f63616c2f": 5013,
      "##7a5e72d2b": 5014,
      "##7a5b8a8301ebae9f8981": 5015,
      "1926423122": 5016,
      "##325af0270bd37eab0ff": 5017,
      "##2f207b207072696e74202431207d": 5018,
      "##2f2026262072756e2d7061727473202d2d7265706f7274202f6574632": 5019,
      "6e6f77202d20313032372e3033207365636f6e6473": 5020,
      "6e6f77202d20313036312e3736207365636f6e6473": 5021,
      "6e6f77202d2031343839392e3730207365636f6e6473": 5022,
      "6e6f77202d2031343531342e3036207365636f6e6473": 5023,
      "thumbnails": 5024,
      "environment": 5025,
      "6e6f77202d20333132322e3639207365636f6e6473": 5026,
      "6e6f77202d2031333737312e3031207365636f6e6473": 5027,
      "##62696e2072756e2d7061727473202d2d6c7362737973696e": 5028,
      "5e4d6178696d756d": 5029,
      "microblaze": 5030,
      "##5636b2061667465723a": 5031,
      "suupdatepermissionprompt": 5032,
      "189x147": 5033,
      "1615802357": 5034,
      "1z4ynzjswr": 5035,
      "2f7573722f62696e2f656e76": 5036,
      "2abfc59d0081a08f": 5037,
      "3118d33ef02590c2": 5038,
      "3ac5b7a5b8a8301ebae9f8981": 5039,
      "36f98649b5f83ce500": 5040,
      "4nwmvsfc0h": 5041,
      "4d951ead36cffc40": 5042,
      "4qtagkjybg": 5043,
      "5v7jyu": 5044,
      "6hhzzqacjy": 5045,
      "69axyankdc": 5046,
      "736370202d66202d2d202e2f5069637475": 5047,
      "760x330": 5048,
      "7d1af94d7857b48d4a": 5049,
      "8rvzmo": 5050,
      "88e1121r": 5051,
      "89cbfd921ef5ff1e": 5052,
      "9fb0cd5b1496f63bc1d6634f7b": 5053,
      "ae942ad0378026ecdb": 5054,
      "aboutdebugging": 5055,
      "aardvark": 5056,
      "aic7xxx": 5057,
      "amso1100": 5058,
      "a543b72c66502": 5059,
      "azmxt7x9ll": 5060,
      "bxrym0jx2s": 5061,
      "broadcasts": 5062,
      "bangersisters": 5063,
      "bf2979baae219f7f9db7f9a41": 5064,
      "c6imjlhmlu": 5065,
      "cxgb4vf": 5066,
      "cuc9l7": 5067,
      "dnkcenrie0": 5068,
      "dc300c89f20519": 5069,
      "dvjvbbdlg9": 5070,
      "dturmg": 5071,
      "e057f70cd1b0fff56d6e5d1": 5072,
      "egyaw4": 5073,
      "ejsh0su0cw": 5074,
      "ead29a79d0c803a8a1950": 5075,
      "fuzzyflakes": 5076,
      "fiberlamp": 5077,
      "fastcalc": 5078,
      "gi1kewzuev": 5079,
      "hyphenation": 5080,
      "hystericalblindness": 5081,
      "ivsb0zsc3z": 5082,
      "ih2q3kj4ah": 5083,
      "jqueryui": 5084,
      "lnxsystm": 5085,
      "l2kesj4kl3": 5086,
      "middleware": 5087,
      "nuv15xouil": 5088,
      "nk2bot36ii": 5089,
      "oauth2": 5090,
      "ovikqomo8o": 5091,
      "pppteae1rb": 5092,
      "pqwex3sdpk": 5093,
      "ppcertdata": 5094,
      "qgkbo3": 5095,
      "qqkkhr": 5096,
      "qvs1lff7c8": 5097,
      "summvv9qil": 5098,
      "sopranos": 5099,
      "safebrowsing": 5100,
      "sf62fyocz4": 5101,
      "sf5ubq81nb": 5102,
      "txer3vac99": 5103,
      "t7fd8hgf4o": 5104,
      "tvg3qi2lxt": 5105,
      "vdkrimct3q": 5106,
      "w6sjtr4j0x": 5107,
      "w83697ug": 5108,
      "wiykfr": 5109,
      "xz369ihknf": 5110,
      "xk78piekze": 5111,
      "x5fv6iq8ra": 5112,
      "yvdka1mvbi": 5113,
      "zeuyeo5ldo": 5114,
      "z3z3ycf6ql": 5115,
      "##e7b9d340157a5e72d2b": 5116,
      "##e686f75726c79": 5117,
      "##e8f850d5c94b": 5118,
      "##f63726f6e2e686f75726c79": 5119,
      "##a22ee9cb87ab1a900080": 5120,
      "##cf94ea0d4bdd5d4": 5121,
      "##d9f1365e16fcaa711b6bae": 5122,
      "##16cc510bf2a5790ce5d19": 5123,
      "##3e01ab97ec945": 5124,
      "##62e3cabb6e738a7ca": 5125,
      "1308183677": 5126,
      "2118801897": 5127,
      "##64647265737320426f6f6b2e63": 5128,
      "##dee19fdeeb73ab2": 5129,
      "2020206364202f2026262072756e2d7061727473202d2d7265706f7274202f6574632": 5130,
      "##7cb8336cb78ac0848cf465ec32": 5131,
      "##cb89e38051ed8f924": 5132,
      "##327c337c3429242f207b207072696e74202431207d": 5133,
      "##ecf23f8b140464": 5134,
      "platforminputcontexts": 5135,
      "##2d6d6f74642e64203e202f72756e2f6d6f74642e64796e616d696": 5136,
      "167ffe4365b0ef3a41502e2": 5137,
      "506572736f6e616c204164647265737320426f6f6b2e63": 5138,
      "6e6f77202d203539322e3037207365636f6e6473": 5139,
      "##85cb6db18c643bc3e01ab97ec945": 5140,
      "55w9ubukhp": 5141,
      "##9f618ca0e956ab136af550fa2e8": 5142,
      "97hi975vqe": 5143,
      "355ba167b09885cb6db18c643bc3e01ab97ec945": 5144,
      "99189c9d2d63d57cb8336cb78ac0848cf465ec32": 5145,
      "2435207e202f5e65787428327c337c3429242f207b207072696e74202431207d": 5146,
      "##ff92cea489ecf23f8b140464": 5147,
      "##14c6f43ff2f29c9ae9ae70": 5148,
      "##202d6920504154483d2f7573722f6c6f63616c2f7362696e3a2f7573722f6c6f63616c2f": 5149,
      "##62696e3a2f7573722f7362696e3a2f7573722f62696e3a2f7362696e3a2f62696e2072756e2d7061727473202d2d6c7362737973696e": 5150,
      "5e4e65787420636865636b2061667465723a": 5151,
      "5e436865636b20696e74657276616c3a": 5152,
      "##300a746f71850474978ee03868": 5153,
      "##6974202f6574632f7570646174652d6d6f74642e64203e202f72756e2f6d6f74642e64796e616d696": 5154,
      "31017840be38acf6baf0e8f850d5c94b": 5155,
      "##325af0270bd37eab0ff2aa": 5156,
      "5e4d6178696d756d206d6f756e7420636f756e743a": 5157,
      "2f7573722f62696e2f656e76202d6920504154483d2f7573722f6c6f63616c2f7362696e3a2f7573722f6c6f63616c2f": 5158,
      "2abfc59d0081a08f16cc510bf2a5790ce5d19": 5159,
      "3118d33ef02590c2ff92cea489ecf23f8b140464": 5160,
      "3ac5b7a5b8a8301ebae9f8981dee19fdeeb73ab2": 5161,
      "36f98649b5f83ce50014c6f43ff2f29c9ae9ae70": 5162,
      "4d951ead36cffc40a22ee9cb87ab1a900080": 5163,
      "736370202d66202d2d202e2f50696374757265732f2a": 5164,
      "7d1af94d7857b48d4a325af0270bd37eab0ff2aa": 5165,
      "9fb0cd5b1496f63bc1d6634f7b6704dc4d94586b": 5166,
      "ae942ad0378026ecdbd9f1365e16fcaa711b6bae": 5167,
      "a543b72c665029f618ca0e956ab136af550fa2e8": 5168,
      "bf2979baae219f7f9db7f9a41cf94ea0d4bdd5d4": 5169,
      "dc300c89f20519300a746f71850474978ee03868": 5170,
      "e057f70cd1b0fff56d6e5d1cb89e38051ed8f924": 5171,
      "ead29a79d0c803a8a1950e7b9d340157a5e72d2b": 5172,
      "2020206364202f2026262072756e2d7061727473202d2d7265706f7274202f6574632f63726f6e2e686f75726c79": 5173,
      "167ffe4365b0ef3a41502e262e3cabb6e738a7ca": 5174,
      "506572736f6e616c204164647265737320426f6f6b2e637376": 5175,
      "##62696e3a2f7573722f7362696e3a2f7573722f62696e3a2f7362696e3a2f62696e2072756e2d7061727473202d2d6c7362737973696e6974202f6574632f7570646174652d6d6f74642e64203e202f72756e2f6d6f74642e64796e616d696": 5176,
      "2f7573722f62696e2f656e76202d6920504154483d2f7573722f6c6f63616c2f7362696e3a2f7573722f6c6f63616c2f62696e3a2f7573722f7362696e3a2f7573722f62696e3a2f7362696e3a2f62696e2072756e2d7061727473202d2d6c7362737973696e6974202f6574632f7570646174652d6d6f74642e64203e202f72756e2f6d6f74642e64796e616d696": 5177,
      "2abfc59d0081a08f16cc510bf2a5790ce5d19a20": 5178,
      "4d951ead36cffc40a22ee9cb87ab1a9000808a60": 5179,
      "2f7573722f62696e2f656e76202d6920504154483d2f7573722f6c6f63616c2f7362696e3a2f7573722f6c6f63616c2f62696e3a2f7573722f7362696e3a2f7573722f62696e3a2f7362696e3a2f62696e2072756e2d7061727473202d2d6c7362737973696e6974202f6574632f7570646174652d6d6f74642e64203e202f72756e2f6d6f74642e64796e616d69632e6e6577": 5180
    }
  }
}