{
  "version": "1.0",
  "truncation": null,
  "padding": null,
  "added_tokens": [
    {
      "id": 0,
      "content": "[UNK]",
      "single_word": false,
      "lstrip": false,
      "rstrip": false,
      "normalized": false,
      "special": true
    },
    {
      "id": 1,
      "content": "[PAD]",
      "single_word": false,
      "lstrip": false,
      "rstrip": false,
      "normalized": false,
      "special": true
    },
    {
      "id": 2,
      "content": "[CLS]",
      "single_word": false,
      "lstrip": false,
      "rstrip": false,
      "normalized": false,
      "special": true
    },
    {
      "id": 3,
      "content": "[SEP]",
      "single_word": false,
      "lstrip": false,
      "rstrip": false,
      "normalized": false,
      "special": true
    },
    {
      "id": 4,
      "content": "[MASK]",
      "single_word": false,
      "lstrip": false,
      "rstrip": false,
      "normalized": false,
      "special": true
    },
    {
      "id": 4315,
      "content": "[event_fork]",
      "single_word": false,
      "lstrip": false,
      "rstrip": false,
      "normalized": true,
      "special": false
    },
    {
      "id": 4316,
      "content": "[event_mprotect]",
      "single_word": false,
      "lstrip": false,
      "rstrip": false,
      "normalized": true,
      "special": false
    },
    {
      "id": 4317,
      "content": "[event_update]",
      "single_word": false,
      "lstrip": false,
      "rstrip": false,
      "normalized": true,
      "special": false
    },
    {
      "id": 4318,
      "content": "[event_mmap]",
      "single_word": false,
      "lstrip": false,
      "rstrip": false,
      "normalized": true,
      "special": false
    },
    {
      "id": 4319,
      "content": "[event_loadlibrary]",
      "single_word": false,
      "lstrip": false,
      "rstrip": false,
      "normalized": true,
      "special": false
    },
    {
      "id": 4320,
      "content": "[event_read]",
      "single_word": false,
      "lstrip": false,
      "rstrip": false,
      "normalized": true,
      "special": false
    },
    {
      "id": 4321,
      "content": "[event_modify_file_attributes]",
      "single_word": false,
      "lstrip": false,
      "rstrip": false,
      "normalized": true,
      "special": false
    },
    {
      "id": 4322,
      "content": "[event_exit]",
      "single_word": false,
      "lstrip": false,
      "rstrip": false,
      "normalized": true,
      "special": false
    },
    {
      "id": 4323,
      "content": "[event_clone]",
      "single_word": false,
      "lstrip": false,
      "rstrip": false,
      "normalized": true,
      "special": false
    },
    {
      "id": 4324,
      "content": "[event_truncate]",
      "single_word": false,
      "lstrip": false,
      "rstrip": false,
      "normalized": true,
      "special": false
    },
    {
      "id": 4325,
      "content": "[event_execute]",
      "single_word": false,
      "lstrip": false,
      "rstrip": false,
      "normalized": true,
      "special": false
    },
    {
      "id": 4326,
      "content": "[event_sendmsg]",
      "single_word": false,
      "lstrip": false,
      "rstrip": false,
      "normalized": true,
      "special": false
    },
    {
      "id": 4327,
      "content": "[event_link]",
      "single_word": false,
      "lstrip": false,
      "rstrip": false,
      "normalized": true,
      "special": false
    },
    {
      "id": 4328,
      "content": "[event_unlink]",
      "single_word": false,
      "lstrip": false,
      "rstrip": false,
      "normalized": true,
      "special": false
    },
    {
      "id": 4329,
      "content": "[event_unit]",
      "single_word": false,
      "lstrip": false,
      "rstrip": false,
      "normalized": true,
      "special": false
    },
    {
      "id": 4330,
      "content": "[event_recvmsg]",
      "single_word": false,
      "lstrip": false,
      "rstrip": false,
      "normalized": true,
      "special": false
    },
    {
      "id": 4331,
      "content": "[event_change_principal]",
      "single_word": false,
      "lstrip": false,
      "rstrip": false,
      "normalized": true,
      "special": false
    },
    {
      "id": 4332,
      "content": "[event_accept]",
      "single_word": false,
      "lstrip": false,
      "rstrip": false,
      "normalized": true,
      "special": false
    },
    {
      "id": 4333,
      "content": "[event_connect]",
      "single_word": false,
      "lstrip": false,
      "rstrip": false,
      "normalized": true,
      "special": false
    },
    {
      "id": 4334,
      "content": "[event_write]",
      "single_word": false,
      "lstrip": false,
      "rstrip": false,
      "normalized": true,
      "special": false
    },
    {
      "id": 4335,
      "content": "[event_create_object]",
      "single_word": false,
      "lstrip": false,
      "rstrip": false,
      "normalized": true,
      "special": false
    },
    {
      "id": 4336,
      "content": "[event_open]",
      "single_word": false,
      "lstrip": false,
      "rstrip": false,
      "normalized": true,
      "special": false
    },
    {
      "id": 4337,
      "content": "[event_rename]",
      "single_word": false,
      "lstrip": false,
      "rstrip": false,
      "normalized": true,
      "special": false
    },
    {
      "id": 4338,
      "content": "[event_close]",
      "single_word": false,
      "lstrip": false,
      "rstrip": false,
      "normalized": true,
      "special": false
    }
  ],
  "normalizer": {
    "type": "BertNormalizer",
    "clean_text": true,
    "handle_chinese_chars": true,
    "strip_accents": null,
    "lowercase": true
  },
  "pre_tokenizer": {
    "type": "BertPreTokenizer"
  },
  "post_processor": null,
  "decoder": {
    "type": "WordPiece",
    "prefix": "##",
    "cleanup": true
  },
  "model": {
    "type": "WordPiece",
    "unk_token": "[UNK]",
    "continuing_subword_prefix": "##",
    "max_input_chars_per_word": 100,
    "vocab": {
      "[UNK]": 0,
      "[PAD]": 1,
      "[CLS]": 2,
      "[SEP]": 3,
      "[MASK]": 4,
      "&": 5,
      "+": 6,
      "-": 7,
      ".": 8,
      "/": 9,
      "0": 10,
      "1": 11,
      "2": 12,
      "3": 13,
      "4": 14,
      "5": 15,
      "6": 16,
      "7": 17,
      "8": 18,
      "9": 19,
      ":": 20,
      "=": 21,
      "@": 22,
      "\\": 23,
      "_": 24,
      "a": 25,
      "b": 26,
      "c": 27,
      "d": 28,
      "e": 29,
      "f": 30,
      "g": 31,
      "h": 32,
      "i": 33,
      "j": 34,
      "k": 35,
      "l": 36,
      "m": 37,
      "n": 38,
      "o": 39,
      "p": 40,
      "q": 41,
      "r": 42,
      "s": 43,
      "t": 44,
      "u": 45,
      "v": 46,
      "w": 47,
      "x": 48,
      "y": 49,
      "z": 50,
      "##i": 51,
      "##b": 52,
      "##x": 53,
      "##e": 54,
      "##t": 55,
      "##l": 56,
      "##d": 57,
      "##p": 58,
      "##r": 59,
      "##o": 60,
      "##c": 61,
      "##m": 62,
      "##k": 63,
      "##4": 64,
      "##f": 65,
      "##9": 66,
      "##3": 67,
      "##2": 68,
      "##5": 69,
      "##0": 70,
      "##a": 71,
      "##6": 72,
      "##8": 73,
      "##1": 74,
      "##7": 75,
      "##j": 76,
      "##s": 77,
      "##u": 78,
      "##v": 79,
      "##n": 80,
      "##g": 81,
      "##h": 82,
      "##z": 83,
      "##w": 84,
      "##y": 85,
      "##q": 86,
      "us": 87,
      "##er": 88,
      "usr": 89,
      "##in": 90,
      "##re": 91,
      "##es": 92,
      "##oc": 93,
      "##fo": 94,
      "fi": 95,
      "##al": 96,
      "##om": 97,
      "fire": 98,
      "##fox": 99,
      "firefox": 100,
      "##on": 101,
      "loc": 102,
      "local": 103,
      "54": 104,
      "##est": 105,
      "##rc": 106,
      "##en": 107,
      "test": 108,
      "lin": 109,
      "de": 110,
      "##ers": 111,
      "##ux": 112,
      "linux": 113,
      "##ic": 114,
      "##ome": 115,
      "##ch": 116,
      "sh": 117,
      "src": 118,
      "##at": 119,
      "mo": 120,
      "13": 121,
      "##ad": 122,
      "14": 123,
      "he": 124,
      "in": 125,
      "##che": 126,
      "con": 127,
      "##il": 128,
      "head": 129,
      "##ri": 130,
      "headers": 131,
      "##ul": 132,
      "ca": 133,
      "##de": 134,
      "##are": 135,
      "dev": 136,
      "##et": 137,
      "pr": 138,
      "##eb": 139,
      "##as": 140,
      "##ib": 141,
      "home": 142,
      "share": 143,
      "cache": 144,
      "web": 145,
      "##rm": 146,
      "ad": 147,
      "##ing": 148,
      "##lu": 149,
      "##ys": 150,
      "lib": 151,
      "##em": 152,
      "##ig": 153,
      "##clu": 154,
      "##min": 155,
      "conf": 156,
      "##ro": 157,
      "##form": 158,
      "tests": 159,
      "inclu": 160,
      "include": 161,
      "gen": 162,
      "admin": 163,
      "proc": 164,
      "##eric": 165,
      "generic": 166,
      "sys": 167,
      "##ar": 168,
      "moz": 169,
      "ch": 170,
      "##ol": 171,
      "143": 172,
      "##an": 173,
      "config": 174,
      "##86": 175,
      "gn": 176,
      "##la": 177,
      "##lat": 178,
      "chr": 179,
      "##or": 180,
      "##ent": 181,
      "##ed": 182,
      "plat": 183,
      "142": 184,
      "x86": 185,
      "64": 186,
      "##st": 187,
      "platform": 188,
      "com": 189,
      "pc": 190,
      "testing": 191,
      "##fa": 192,
      "##it": 193,
      "##um": 194,
      "##illa": 195,
      "mozilla": 196,
      "gnu": 197,
      "##ult": 198,
      "##ion": 199,
      "##rg": 200,
      "##f2": 201,
      "ht": 202,
      "ob": 203,
      "##dul": 204,
      "defa": 205,
      "obj": 206,
      "default": 207,
      "org": 208,
      "##yd": 209,
      "##o2": 210,
      "wyd": 211,
      "##8o2": 212,
      "##omi": 213,
      "wyd8o2": 214,
      "wyd8o2f2": 215,
      "##el": 216,
      "##ag": 217,
      "shm": 218,
      "devic": 219,
      "chromi": 220,
      "chromium": 221,
      "##un": 222,
      "re": 223,
      "##ool": 224,
      "##ce": 225,
      "doc": 226,
      "##vers": 227,
      "cache2": 228,
      "##ec": 229,
      "##tp": 230,
      "dri": 231,
      "##ss": 232,
      "modul": 233,
      "drivers": 234,
      "net": 235,
      "##rt": 236,
      "##ap": 237,
      "##ot": 238,
      "##00": 239,
      "##ws": 240,
      "http": 241,
      "tool": 242,
      "modules": 243,
      "##id": 244,
      "##bo": 245,
      "##gin": 246,
      "##ras": 247,
      "##rows": 248,
      "##ac": 249,
      "py": 250,
      "st": 251,
      "##th": 252,
      "##con": 253,
      "##rch": 254,
      "devices": 255,
      "##ps": 256,
      "##ut": 257,
      "##ern": 258,
      "ref": 259,
      "brows": 260,
      "##ty": 261,
      "##le": 262,
      "arch": 263,
      "im": 264,
      "##pt": 265,
      "##edi": 266,
      "00": 267,
      "en": 268,
      "##omed": 269,
      "webrt": 270,
      "webrtc": 271,
      "do": 272,
      "hbo": 273,
      "bu": 274,
      "js": 275,
      "tr": 276,
      "##ist": 277,
      "##ww": 278,
      "browser": 279,
      "met": 280,
      "##am": 281,
      "doomed": 282,
      "medi": 283,
      "ori": 284,
      "tas": 285,
      "www": 286,
      "media": 287,
      "origin": 288,
      "task": 289,
      "an": 290,
      "vi": 291,
      "##eme": 292,
      "meta": 293,
      "eras": 294,
      "##xt": 295,
      "##ml": 296,
      "eraseme": 297,
      "kern": 298,
      "##pa": 299,
      "##ance": 300,
      "kernel": 301,
      "dar": 302,
      "dist": 303,
      "##ow": 304,
      "##kit": 305,
      "##si": 306,
      "##err": 307,
      "##formance": 308,
      "img": 309,
      "sp": 310,
      "conformance": 311,
      "##ents": 312,
      "##ions": 313,
      "referr": 314,
      "darpa": 315,
      "referrer": 316,
      "th": 317,
      "##26": 318,
      "pyth": 319,
      "##cons": 320,
      "python": 321,
      "dom": 322,
      "##tri": 323,
      "##ess": 324,
      "##ens": 325,
      "##ase": 326,
      "toolkit": 327,
      "ap": 328,
      "icons": 329,
      "##yp": 330,
      "##ild": 331,
      "ac": 332,
      "dat": 333,
      "sche": 334,
      "##bu": 335,
      "##dro": 336,
      "##ab": 337,
      "##ile": 338,
      "html": 339,
      "##droid": 340,
      "at": 341,
      "bin": 342,
      "ma": 343,
      "pow": 344,
      "##im": 345,
      "##32": 346,
      "##01": 347,
      "##gl": 348,
      "##ock": 349,
      "##ort": 350,
      "comp": 351,
      "device": 352,
      "##unk": 353,
      "##ack": 354,
      "entri": 355,
      "android": 356,
      "entries": 357,
      "ip": 358,
      "mem": 359,
      "##ou": 360,
      "##atch": 361,
      "##olic": 362,
      "chrome": 363,
      "trunk": 364,
      "power": 365,
      "el": 366,
      "per": 367,
      "sc": 368,
      "ub": 369,
      "##bile": 370,
      "##tr": 371,
      "##tem": 372,
      "mobile": 373,
      "system": 374,
      "##ory": 375,
      "##ages": 376,
      "16": 377,
      "gl": 378,
      "pn": 379,
      "patch": 380,
      "polic": 381,
      "##lp": 382,
      "##op": 383,
      "##28": 384,
      "cont": 385,
      "tools": 386,
      "stat": 387,
      "compon": 388,
      "policy": 389,
      "cl": 390,
      "cro": 391,
      "ext": 392,
      "un": 393,
      "##test": 394,
      "##ame": 395,
      "elem": 396,
      "ubsi": 397,
      "components": 398,
      "cross": 399,
      "xf": 400,
      "##if": 401,
      "##pu": 402,
      "##48": 403,
      "##73": 404,
      "##end": 405,
      "help": 406,
      "int": 407,
      "memory": 408,
      "##ourc": 409,
      "perl": 410,
      "sec": 411,
      "##out": 412,
      "##51": 413,
      "##08": 414,
      "##av": 415,
      "##erv": 416,
      "schedul": 417,
      "xfce": 418,
      "fr": 419,
      "##ir": 420,
      "##ure": 421,
      "##and": 422,
      "gnome": 423,
      "apps": 424,
      "##build": 425,
      "attr": 426,
      "content": 427,
      "bl": 428,
      "base": 429,
      "su": 430,
      "##pl": 431,
      "##port": 432,
      "##ff": 433,
      "##uri": 434,
      "mozbuild": 435,
      "##eck": 436,
      "ipv": 437,
      "extens": 438,
      "24": 439,
      "tag": 440,
      "##21": 441,
      "##27": 442,
      "##ay": 443,
      "locale": 444,
      "test26": 445,
      "add": 446,
      "##unt": 447,
      "##ect": 448,
      "##able": 449,
      "element": 450,
      "extensions": 451,
      "test262": 452,
      "fd": 453,
      "pack": 454,
      "##io": 455,
      "##of": 456,
      "##24": 457,
      "##55": 458,
      "##03": 459,
      "##ust": 460,
      "webgl": 461,
      "bus": 462,
      "virt": 463,
      "securi": 464,
      "block": 465,
      "security": 466,
      "15": 467,
      "18": 468,
      "17": 469,
      "ex": 470,
      "ne": 471,
      "no": 472,
      "res": 473,
      "tty": 474,
      "##ix": 475,
      "##ient": 476,
      "##iss": 477,
      "##ext": 478,
      "##tc": 479,
      "##tool": 480,
      "##pd": 481,
      "##ob": 482,
      "##96": 483,
      "##91": 484,
      "##34": 485,
      "##ual": 486,
      "##ade": 487,
      "##ilt": 488,
      "devtool": 489,
      "##ary": 490,
      "##ork": 491,
      "pci": 492,
      "spade": 493,
      "pnp": 494,
      "devtools": 495,
      "48": 496,
      "cpu": 497,
      "em": 498,
      "etc": 499,
      "gif": 500,
      "jav": 501,
      "ln": 502,
      "lay": 503,
      "par": 504,
      "##ct": 505,
      "##mp": 506,
      "##ma": 507,
      "##fs": 508,
      "##0a": 509,
      "##07": 510,
      "##77": 511,
      "##us": 512,
      "deps": 513,
      "##ation": 514,
      "prot": 515,
      "##yst": 516,
      "check": 517,
      "##age": 518,
      "##aging": 519,
      "##api": 520,
      "built": 521,
      "data": 522,
      "mach": 523,
      "schedule": 524,
      "##ures": 525,
      "addon": 526,
      "packages": 527,
      "##ission": 528,
      "##pdat": 529,
      "gyp": 530,
      "ho": 531,
      "moc": 532,
      "map": 533,
      "tp": 534,
      "##ev": 535,
      "##tk": 536,
      "##dk": 537,
      "##da": 538,
      "##dn": 539,
      "##os": 540,
      "##mission": 541,
      "##46": 542,
      "##38": 543,
      "##31": 544,
      "##22": 545,
      "##af": 546,
      "##sp": 547,
      "##get": 548,
      "##ert": 549,
      "##ine": 550,
      "fil": 551,
      "ins": 552,
      "##lugin": 553,
      "build": 554,
      "python2": 555,
      "act": 556,
      "date": 557,
      "##ime": 558,
      "client": 559,
      "##ources": 560,
      "##ird": 561,
      "ipv6": 562,
      "elementary": 563,
      "resources": 564,
      "java": 565,
      "lnx": 566,
      "layout": 567,
      "moch": 568,
      "tp5": 569,
      "20": 570,
      "aut": 571,
      "ec": 572,
      "id": 573,
      "lo": 574,
      "man": 575,
      "ogl": 576,
      "so": 577,
      "same": 578,
      "sourc": 579,
      "##iv": 580,
      "##ex": 581,
      "##ea": 582,
      "##ld": 583,
      "##db": 584,
      "##oot": 585,
      "##mon": 586,
      "##kt": 587,
      "##39": 588,
      "##36": 589,
      "##25": 590,
      "##06": 591,
      "##81": 592,
      "usb": 593,
      "##ript": 594,
      "##emes": 595,
      "##ign": 596,
      "##igh": 597,
      "##ans": 598,
      "module": 599,
      "##app": 600,
      "##rash": 601,
      "staging": 602,
      "reftest": 603,
      "third": 604,
      "themes": 605,
      "163": 606,
      "png": 607,
      "virtual": 608,
      "host": 609,
      "ogles": 610,
      "000": 611,
      "25": 612,
      "al": 613,
      "back": 614,
      "co": 615,
      "css": 616,
      "des": 617,
      "gtk": 618,
      "is": 619,
      "min": 620,
      "mix": 621,
      "nss": 622,
      "not": 623,
      "old": 624,
      "plugin": 625,
      "rp": 626,
      "rust": 627,
      "ur": 628,
      "updat": 629,
      "var": 630,
      "win": 631,
      "##ease": 632,
      "##ts": 633,
      "##pi": 634,
      "##pc": 635,
      "##ck": 636,
      "##ca": 637,
      "##47": 638,
      "##99": 639,
      "##57": 640,
      "##11": 641,
      "##syst": 642,
      "##up": 643,
      "##gures": 644,
      "##ware": 645,
      "figures": 646,
      "can": 647,
      "##deo": 648,
      "prof": 649,
      "common": 650,
      "##ity": 651,
      "##ell": 652,
      "netease": 653,
      "##otyp": 654,
      "str": 655,
      "trans": 656,
      "vim": 657,
      "##018": 658,
      "glob": 659,
      "uns": 660,
      "sub": 661,
      "152": 662,
      "party": 663,
      "prototyp": 664,
      "lnxsyst": 665,
      "source": 666,
      "reftests": 667,
      "0000": 668,
      "mixed": 669,
      "global": 670,
      "prototype": 671,
      "lnxsystm": 672,
      "19": 673,
      "10": 674,
      "22": 675,
      "428": 676,
      "arm": 677,
      "crash": 678,
      "fs": 679,
      "hic": 680,
      "if": 681,
      "mac": 682,
      "mess": 683,
      "pre": 684,
      "serv": 685,
      "tar": 686,
      "wr": 687,
      "##ial": 688,
      "##b5": 689,
      "##ef": 690,
      "##te": 691,
      "##ta": 692,
      "##let": 693,
      "##lib": 694,
      "##d9": 695,
      "##ple": 696,
      "##ore": 697,
      "##94": 698,
      "##95": 699,
      "##37": 700,
      "##2c": 701,
      "##5e": 702,
      "##09": 703,
      "##02": 704,
      "##ain": 705,
      "##68": 706,
      "##sl": 707,
      "##sc": 708,
      "##ub": 709,
      "##vas": 710,
      "##work": 711,
      "##info": 712,
      "##eserv": 713,
      "##all": 714,
      "locales": 715,
      "##ath": 716,
      "cai": 717,
      "libs": 718,
      "libg": 719,
      "##olor": 720,
      "##ang": 721,
      "##apps": 722,
      "##0000": 723,
      "https": 724,
      "##cont": 725,
      "##ernet": 726,
      "video": 727,
      "python3": 728,
      "domain": 729,
      "acpi": 730,
      "##bug": 731,
      "ata": 732,
      "script": 733,
      "intl": 734,
      "perl5": 735,
      "scheduleserv": 736,
      "xfce4": 737,
      "exam": 738,
      "pci0000": 739,
      "pnp0a": 740,
      "checkers": 741,
      "action": 742,
      "##ktop": 743,
      "##appers": 744,
      "desktop": 745,
      "url": 746,
      "canvas": 747,
      "vim73": 748,
      "4280": 749,
      "hicolor": 750,
      "target": 751,
      "wrappers": 752,
      "scheduleservlet": 753,
      "pnp0a08": 754,
      "200": 755,
      "43": 756,
      "60": 757,
      "cm": 758,
      "ds": 759,
      "eth": 760,
      "git": 761,
      "ir": 762,
      "os": 763,
      "opt": 764,
      "redi": 765,
      "sdk": 766,
      "tmp": 767,
      "uapi": 768,
      "work": 769,
      "xpt": 770,
      "xpc": 771,
      "##is": 772,
      "##ian": 773,
      "##bc": 774,
      "##do": 775,
      "##d4": 776,
      "##ding": 777,
      "##dio": 778,
      "##per": 779,
      "##pro": 780,
      "##r0": 781,
      "##ry": 782,
      "##rame": 783,
      "##cl": 784,
      "##cp": 785,
      "##map": 786,
      "##fi": 787,
      "##9e": 788,
      "##98": 789,
      "##2d": 790,
      "##2f": 791,
      "##201": 792,
      "##04": 793,
      "##se": 794,
      "##vg": 795,
      "##ness": 796,
      "##rect": 797,
      "link": 798,
      "deta": 799,
      "##ict": 800,
      "##ics": 801,
      "inf": 802,
      "##iles": 803,
      "##ass": 804,
      "##eman": 805,
      "##ark": 806,
      "##arness": 807,
      "mozapps": 808,
      "##ole": 809,
      "##lac": 810,
      "##ite": 811,
      "##itest": 812,
      "##umb": 813,
      "object": 814,
      "##und": 815,
      "docs": 816,
      "##conf": 817,
      "##typ": 818,
      "main": 819,
      "scre": 820,
      "statm": 821,
      "status": 822,
      "clock": 823,
      "elements": 824,
      "ipv4": 825,
      "##untime": 826,
      "blockable": 827,
      "addons": 828,
      "files": 829,
      "mochitest": 830,
      "auto": 831,
      "##ive": 832,
      "backend": 833,
      "transmission": 834,
      "iframe": 835,
      "cairo": 836,
      "ethernet": 837,
      "redirect": 838,
      "detail": 839,
      "032": 840,
      "11": 841,
      "124": 842,
      "32": 843,
      "62": 844,
      "ari": 845,
      "apt": 846,
      "da": 847,
      "ed": 848,
      "gf": 849,
      "gtest": 850,
      "high": 851,
      "jdk": 852,
      "lc": 853,
      "lev": 854,
      "lpro": 855,
      "math": 856,
      "nfs": 857,
      "on": 858,
      "oth": 859,
      "pk": 860,
      "pine": 861,
      "rend": 862,
      "runtime": 863,
      "sm": 864,
      "ser": 865,
      "sla": 866,
      "sun": 867,
      "sess": 868,
      "tem": 869,
      "top": 870,
      "ut": 871,
      "val": 872,
      "wh": 873,
      "##ies": 874,
      "##b0": 875,
      "##base": 876,
      "##x1": 877,
      "##ee": 878,
      "##e4": 879,
      "##tics": 880,
      "##dl": 881,
      "##df": 882,
      "##d6": 883,
      "##pr": 884,
      "##pre": 885,
      "##par": 886,
      "##plat": 887,
      "##put": 888,
      "##rb": 889,
      "##ode": 890,
      "##c4": 891,
      "##c8": 892,
      "##m2": 893,
      "##mas": 894,
      "##41": 895,
      "##fd": 896,
      "##fc": 897,
      "##97": 898,
      "##2b": 899,
      "##56": 900,
      "##58": 901,
      "##a8": 902,
      "##66": 903,
      "##85": 904,
      "##80": 905,
      "##sh": 906,
      "##n1": 907,
      "##ht": 908,
      "##qu": 909,
      "##int": 910,
      "##rel": 911,
      "file": 912,
      "##alend": 913,
      "debug": 914,
      "##ices": 915,
      "init": 916,
      "input": 917,
      "##dex": 918,
      "##areport": 919,
      "shared": 920,
      "##ument": 921,
      "reg": 922,
      "##cept": 923,
      "document": 924,
      "##ecalend": 925,
      "##ots": 926,
      "##ernal": 927,
      "json": 928,
      "spell": 929,
      "spark": 930,
      "##ensh": 931,
      "app": 932,
      "acc": 933,
      "datareport": 934,
      "##amework": 935,
      "intel": 936,
      "##517": 937,
      "framework": 938,
      "##ples": 939,
      "##ecko": 940,
      "neigh": 941,
      "maps": 942,
      "##osx": 943,
      "mochi": 944,
      "ecma": 945,
      "log": 946,
      "sound": 947,
      "all": 948,
      "notif": 949,
      "updatecalend": 950,
      "profiles": 951,
      "strict": 952,
      "macosx": 953,
      "messages": 954,
      "scripts": 955,
      "examples": 956,
      "objects": 957,
      "screensh": 958,
      "clockev": 959,
      "032018": 960,
      "1245": 961,
      "gfx": 962,
      "jdk1": 963,
      "level": 964,
      "lproj": 965,
      "render": 966,
      "serial": 967,
      "session": 968,
      "templat": 969,
      "util": 970,
      "sparkle": 971,
      "datareporting": 972,
      "updatecalendar": 973,
      "04": 974,
      "09": 975,
      "1b": 976,
      "28": 977,
      "201": 978,
      "255": 979,
      "2018": 980,
      "36": 981,
      "73": 982,
      "7z": 983,
      "as": 984,
      "au": 985,
      "abo": 986,
      "br": 987,
      "bo": 988,
      "blu": 989,
      "band": 990,
      "cu": 991,
      "comed": 992,
      "ctyp": 993,
      "di": 994,
      "dh": 995,
      "dw": 996,
      "drm": 997,
      "ev": 998,
      "fb": 999,
      "fe": 1000,
      "fo": 1001,
      "fun": 1002,
      "gc": 1003,
      "gst": 1004,
      "gecko": 1005,
      "harness": 1006,
      "ic": 1007,
      "iio": 1008,
      "i2c": 1009,
      "jp": 1010,
      "jun": 1011,
      "ks": 1012,
      "lang": 1013,
      "mm": 1014,
      "mim": 1015,
      "ns": 1016,
      "nib": 1017,
      "numb": 1018,
      "op": 1019,
      "qu": 1020,
      "ra": 1021,
      "red": 1022,
      "rob": 1023,
      "sb": 1024,
      "sk": 1025,
      "sy": 1026,
      "sof": 1027,
      "saf": 1028,
      "sea": 1029,
      "sign": 1030,
      "ssl": 1031,
      "svg": 1032,
      "seman": 1033,
      "tt": 1034,
      "tel": 1035,
      "typ": 1036,
      "ui": 1037,
      "uu": 1038,
      "vend": 1039,
      "wid": 1040,
      "xt": 1041,
      "xml": 1042,
      "yel": 1043,
      "zlib": 1044,
      "##ip": 1045,
      "##ips": 1046,
      "##irel": 1047,
      "##b9": 1048,
      "##b8": 1049,
      "##xx": 1050,
      "##x48": 1051,
      "##x22": 1052,
      "##e0": 1053,
      "##e6": 1054,
      "##ew": 1055,
      "##ede": 1056,
      "##ters": 1057,
      "##tions": 1058,
      "##tian": 1059,
      "##ls": 1060,
      "##ly": 1061,
      "##ler": 1062,
      "##lect": 1063,
      "##dp": 1064,
      "##des": 1065,
      "##pport": 1066,
      "##plac": 1067,
      "##rn": 1068,
      "##ram": 1069,
      "##ray": 1070,
      "##ci": 1071,
      "##me": 1072,
      "##ms": 1073,
      "##ke": 1074,
      "##fb": 1075,
      "##f9": 1076,
      "##f6": 1077,
      "##f8": 1078,
      "##3b": 1079,
      "##35": 1080,
      "##30": 1081,
      "##332": 1082,
      "##23": 1083,
      "##54": 1084,
      "##5f": 1085,
      "##50": 1086,
      "##5a": 1087,
      "##a6": 1088,
      "##69": 1089,
      "##87": 1090,
      "##12": 1091,
      "##128": 1092,
      "##173": 1093,
      "##ser": 1094,
      "##sole": 1095,
      "##ui": 1096,
      "##uv": 1097,
      "##utp": 1098,
      "##uage": 1099,
      "##updat": 1100,
      "##vi": 1101,
      "##vm": 1102,
      "##net": 1103,
      "##hs": 1104,
      "##ze": 1105,
      "##wn": 1106,
      "##wer": 1107,
      "user": 1108,
      "##ink": 1109,
      "##ince": 1110,
      "##reen": 1111,
      "firm": 1112,
      "##alable": 1113,
      "##onet": 1114,
      "lintian": 1115,
      "##ick": 1116,
      "##icat": 1117,
      "mode": 1118,
      "index": 1119,
      "##check": 1120,
      "##rionet": 1121,
      "##ete": 1122,
      "##etch": 1123,
      "prop": 1124,
      "##ebrows": 1125,
      "webext": 1126,
      "process": 1127,
      "##ard": 1128,
      "##ord": 1129,
      "##ors": 1130,
      "##ager": 1131,
      "requ": 1132,
      "replac": 1133,
      "netwer": 1134,
      "httpd": 1135,
      "##box": 1136,
      "##rast": 1137,
      "pyca": 1138,
      "##util": 1139,
      "browsers": 1140,
      "archiv": 1141,
      "images": 1142,
      "image": 1143,
      "##pto": 1144,
      "enc": 1145,
      "##istory": 1146,
      "anim": 1147,
      "vis": 1148,
      "virb": 1149,
      "img4": 1150,
      "img3": 1151,
      "sport": 1152,
      "the": 1153,
      "##ension": 1154,
      "accept": 1155,
      "sched": 1156,
      "binding": 1157,
      "max": 1158,
      "marionet": 1159,
      "compil": 1160,
      "scsi": 1161,
      "scalable": 1162,
      "static": 1163,
      "class": 1164,
      "external": 1165,
      "sections": 1166,
      "support": 1167,
      "##untu": 1168,
      "fdinfo": 1169,
      "1769": 1170,
      "new": 1171,
      "48x48": 1172,
      "em2": 1173,
      "##079": 1174,
      "checkout": 1175,
      "##dns": 1176,
      "##afe": 1177,
      "##afc": 1178,
      "##erties": 1179,
      "films": 1180,
      "idl": 1181,
      "manager": 1182,
      "##exp": 1183,
      "##ooter": 1184,
      "##364": 1185,
      "host5": 1186,
      "gtk2": 1187,
      "isdn": 1188,
      "mines": 1189,
      "plugins": 1190,
      "windo": 1191,
      "unset": 1192,
      "unsafe": 1193,
      "22x22": 1194,
      "servo": 1195,
      "services": 1196,
      "##screen": 1197,
      "libgn": 1198,
      "##contrast": 1199,
      "ata5": 1200,
      "target5": 1201,
      "2003": 1202,
      "irq": 1203,
      "workers": 1204,
      "xpcsh": 1205,
      "##rypto": 1206,
      "aria": 1207,
      "highcontrast": 1208,
      "other": 1209,
      "slab": 1210,
      "when": 1211,
      "regexp": 1212,
      "mochikit": 1213,
      "screenshots": 1214,
      "rendering": 1215,
      "template": 1216,
      "2011": 1217,
      "3673": 1218,
      "audio": 1219,
      "comedi": 1220,
      "ctypes": 1221,
      "evince": 1222,
      "icu": 1223,
      "language": 1224,
      "number": 1225,
      "open": 1226,
      "syn": 1227,
      "soft": 1228,
      "safebrows": 1229,
      "search": 1230,
      "semantics": 1231,
      "ttys": 1232,
      "yelp": 1233,
      "##ireless": 1234,
      "##update": 1235,
      "firmware": 1236,
      "properties": 1237,
      "webextension": 1238,
      "request": 1239,
      "replaced": 1240,
      "netwerk": 1241,
      "pycache": 1242,
      "archived": 1243,
      "virbr0": 1244,
      "sports": 1245,
      "bindings": 1246,
      "marionette": 1247,
      "windows": 1248,
      "xpcshell": 1249,
      "safebrowsing": 1250,
      "06": 1251,
      "01": 1252,
      "1c": 1253,
      "12": 1254,
      "196": 1255,
      "29": 1256,
      "26": 1257,
      "208": 1258,
      "4a": 1259,
      "412": 1260,
      "51": 1261,
      "76": 1262,
      "81": 1263,
      "96": 1264,
      "ab": 1265,
      "ar": 1266,
      "a3": 1267,
      "az": 1268,
      "bc": 1269,
      "bn": 1270,
      "by": 1271,
      "bla": 1272,
      "boot": 1273,
      "bbc": 1274,
      "cv": 1275,
      "coc": 1276,
      "crc": 1277,
      "col": 1278,
      "cust": 1279,
      "csp": 1280,
      "city": 1281,
      "crypto": 1282,
      "du": 1283,
      "dir": 1284,
      "dma": 1285,
      "es": 1286,
      "eu": 1287,
      "foc": 1288,
      "fon": 1289,
      "ftp": 1290,
      "fetch": 1291,
      "footer": 1292,
      "get": 1293,
      "gro": 1294,
      "gpu": 1295,
      "gmp": 1296,
      "hd": 1297,
      "hw": 1298,
      "hol": 1299,
      "hyp": 1300,
      "hav": 1301,
      "history": 1302,
      "io": 1303,
      "ioc": 1304,
      "its": 1305,
      "ia6": 1306,
      "ke": 1307,
      "li": 1308,
      "lv": 1309,
      "lg": 1310,
      "lic": 1311,
      "lar": 1312,
      "lust": 1313,
      "lef": 1314,
      "mt": 1315,
      "ml": 1316,
      "md": 1317,
      "mer": 1318,
      "mic": 1319,
      "mult": 1320,
      "m68": 1321,
      "mdio": 1322,
      "mn1": 1323,
      "mdns": 1324,
      "non": 1325,
      "nat": 1326,
      "nand": 1327,
      "nsp": 1328,
      "nfc": 1329,
      "nuv": 1330,
      "oc": 1331,
      "ov": 1332,
      "oom": 1333,
      "off": 1334,
      "outp": 1335,
      "pix": 1336,
      "plac": 1337,
      "rd": 1338,
      "run": 1339,
      "rout": 1340,
      "root": 1341,
      "rang": 1342,
      "sg": 1343,
      "sq": 1344,
      "soc": 1345,
      "set": 1346,
      "sens": 1347,
      "sim": 1348,
      "solic": 1349,
      "sand": 1350,
      "sdb": 1351,
      "s39": 1352,
      "sr0": 1353,
      "site": 1354,
      "to": 1355,
      "tg": 1356,
      "tw": 1357,
      "ter": 1358,
      "tre": 1359,
      "tal": 1360,
      "tab": 1361,
      "tou": 1362,
      "text": 1363,
      "time": 1364,
      "tumb": 1365,
      "um": 1366,
      "uk": 1367,
      "vers": 1368,
      "v201": 1369,
      "wl": 1370,
      "w3": 1371,
      "wan": 1372,
      "wpt": 1373,
      "wireless": 1374,
      "x11": 1375,
      "xsl": 1376,
      "x2f": 1377,
      "yafc": 1378,
      "zh": 1379,
      "##iple": 1380,
      "##bl": 1381,
      "##b2": 1382,
      "##b1": 1383,
      "##x32": 1384,
      "##xbase": 1385,
      "##e8": 1386,
      "##e7": 1387,
      "##e26": 1388,
      "##tml": 1389,
      "##l2": 1390,
      "##lz": 1391,
      "##las": 1392,
      "##lips": 1393,
      "##dr": 1394,
      "##d2": 1395,
      "##d1": 1396,
      "##doc": 1397,
      "##ders": 1398,
      "##dir": 1399,
      "##pq": 1400,
      "##pad": 1401,
      "##rd": 1402,
      "##ra": 1403,
      "##oa": 1404,
      "##og": 1405,
      "##oad": 1406,
      "##ount": 1407,
      "##c9": 1408,
      "##cre": 1409,
      "##cent": 1410,
      "##cpu": 1411,
      "##curi": 1412,
      "##cript": 1413,
      "##crash": 1414,
      "##mi": 1415,
      "##ka": 1416,
      "##44": 1417,
      "##42": 1418,
      "##400": 1419,
      "##448": 1420,
      "##451": 1421,
      "##f1": 1422,
      "##f7": 1423,
      "##fin": 1424,
      "##file": 1425,
      "##f81": 1426,
      "##93": 1427,
      "##9a": 1428,
      "##996": 1429,
      "##33": 1430,
      "##326": 1431,
      "##20": 1432,
      "##2s": 1433,
      "##294": 1434,
      "##59": 1435,
      "##53": 1436,
      "##527": 1437,
      "##5lib": 1438,
      "##0d": 1439,
      "##057": 1440,
      "##0d4": 1441,
      "##ax": 1442,
      "##a1": 1443,
      "##ari": 1444,
      "##6c": 1445,
      "##82": 1446,
      "##825": 1447,
      "##16": 1448,
      "##186": 1449,
      "##122": 1450,
      "##1f6": 1451,
      "##726": 1452,
      "##721": 1453,
      "##787": 1454,
      "##js": 1455,
      "##serv": 1456,
      "##uy": 1457,
      "##ues": 1458,
      "##uct": 1459,
      "##vj": 1460,
      "##ns": 1461,
      "##nel": 1462,
      "##ger": 1463,
      "##gro": 1464,
      "##got": 1465,
      "##hr": 1466,
      "##ho": 1467,
      "##hin": 1468,
      "##harness": 1469,
      "##zm": 1470,
      "##zj": 1471,
      "##zrn": 1472,
      "##wa": 1473,
      "##qi": 1474,
      "##erri": 1475,
      "##ress": 1476,
      "##ream": 1477,
      "##report": 1478,
      "##esign": 1479,
      "##ocom": 1480,
      "##ocol": 1481,
      "##ocop": 1482,
      "fix": 1483,
      "##ompt": 1484,
      "##one": 1485,
      "##env": 1486,
      "deb": 1487,
      "##ice": 1488,
      "##chscreen": 1489,
      "shad": 1490,
      "shtml": 1491,
      "##ations": 1492,
      "mov": 1493,
      "mount": 1494,
      "heap": 1495,
      "console": 1496,
      "header": 1497,
      "##ris": 1498,
      "##risc": 1499,
      "cast": 1500,
      "##dev": 1501,
      "promi": 1502,
      "print": 1503,
      "##ast": 1504,
      "##ash": 1505,
      "##asn1": 1506,
      "##ible": 1507,
      "webcons": 1508,
      "##rmor": 1509,
      "adj": 1510,
      "libd": 1511,
      "libr": 1512,
      "libm": 1513,
      "libff": 1514,
      "##emet": 1515,
      "##clust": 1516,
      "##rol": 1517,
      "##art": 1518,
      "##array": 1519,
      "mozbase": 1520,
      "mozcrash": 1521,
      "mozharness": 1522,
      "##annel": 1523,
      "##ed8": 1524,
      "##edarray": 1525,
      "##store": 1526,
      "##stub": 1527,
      "##it3": 1528,
      "##iting": 1529,
      "##ional": 1530,
      "##aged": 1531,
      "read": 1532,
      "recent": 1533,
      "##ssh": 1534,
      "##oton": 1535,
      "##idle": 1536,
      "##board": 1537,
      "##act": 1538,
      "##acs": 1539,
      "##acom": 1540,
      "pytest": 1541,
      "pyasn1": 1542,
      "stor": 1543,
      "stock": 1544,
      "refs": 1545,
      "reflect": 1546,
      "imap": 1547,
      "down": 1548,
      "bug": 1549,
      "js1": 1550,
      "taskclust": 1551,
      "ann": 1552,
      "##parmor": 1553,
      "##owed": 1554,
      "##size": 1555,
      "img1": 1556,
      "sphin": 1557,
      "think": 1558,
      "##triaged": 1559,
      "##essible": 1560,
      "##enses": 1561,
      "apparmor": 1562,
      "schemas": 1563,
      "scheme": 1564,
      "##bus": 1565,
      "html5lib": 1566,
      "ipc": 1567,
      "perf": 1568,
      "score": 1569,
      "ubuntu": 1570,
      "1603": 1571,
      "glib": 1572,
      "unic": 1573,
      "unit": 1574,
      "untriaged": 1575,
      "##ifest": 1576,
      "##pub": 1577,
      "inter": 1578,
      "memory1": 1579,
      "memory26": 1580,
      "##anding": 1581,
      "contenttyp": 1582,
      "suupdate": 1583,
      "##plicat": 1584,
      "##plete": 1585,
      "##ports": 1586,
      "2477": 1587,
      "2431": 1588,
      "2494": 1589,
      "##218": 1590,
      "##0300": 1591,
      "virtio": 1592,
      "1507": 1593,
      "exports": 1594,
      "nodes": 1595,
      "##91a": 1596,
      "##ualvm": 1597,
      "pnp0": 1598,
      "em1": 1599,
      "emacs": 1600,
      "protocol": 1601,
      "##missionpr": 1602,
      "##382": 1603,
      "##ertex": 1604,
      "actions": 1605,
      "autocom": 1606,
      "eclips": 1607,
      "load": 1608,
      "manifest": 1609,
      "##eak": 1610,
      "##igned": 1611,
      "virtualenv": 1612,
      "2586": 1613,
      "2533": 1614,
      "code": 1615,
      "gtk3": 1616,
      "notes": 1617,
      "update": 1618,
      "##ckfin": 1619,
      "string": 1620,
      "submission": 1621,
      "152364": 1622,
      "1048": 1623,
      "crashdb": 1624,
      "crashreport": 1625,
      "pref": 1626,
      "domain0": 1627,
      "example": 1628,
      "targets": 1629,
      "4334": 1630,
      "cmd": 1631,
      "cmdl": 1632,
      "osfile": 1633,
      "xpcom": 1634,
      "##permissionpr": 1635,
      "##client": 1636,
      "##983": 1637,
      "infin": 1638,
      "32x32": 1639,
      "editing": 1640,
      "onboard": 1641,
      "pkg": 1642,
      "pine4": 1643,
      "sun3": 1644,
      "valid": 1645,
      "values": 1646,
      "##press": 1647,
      "##party": 1648,
      "##parser": 1649,
      "debugger": 1650,
      "initram": 1651,
      "documentation": 1652,
      "jsonlz": 1653,
      "spellcheck": 1654,
      "accessible": 1655,
      "allowed": 1656,
      "notify": 1657,
      "clockevent": 1658,
      "clockevents": 1659,
      "serial825": 1660,
      "28079": 1661,
      "2559": 1662,
      "7zstub": 1663,
      "asm": 1664,
      "about": 1665,
      "branding": 1666,
      "box": 1667,
      "blueman": 1668,
      "cups": 1669,
      "dhcp": 1670,
      "feat": 1671,
      "form": 1672,
      "funct": 1673,
      "gcc": 1674,
      "geckovi": 1675,
      "junit3": 1676,
      "ksz": 1677,
      "mmc": 1678,
      "mimes": 1679,
      "redesign": 1680,
      "robocop": 1681,
      "telemet": 1682,
      "typedarray": 1683,
      "uuid": 1684,
      "vendors": 1685,
      "widget": 1686,
      "processing": 1687,
      "##order": 1688,
      "##utils": 1689,
      "encode": 1690,
      "animations": 1691,
      "visualvm": 1692,
      "libgnome": 1693,
      "openrisc": 1694,
      "software": 1695,
      "ttys0": 1696,
      "2087": 1697,
      "abort": 1698,
      "blackfin": 1699,
      "cvs": 1700,
      "cocoa": 1701,
      "focus": 1702,
      "fonts": 1703,
      "holders": 1704,
      "have": 1705,
      "ia64": 1706,
      "licenses": 1707,
      "lustre": 1708,
      "left": 1709,
      "mtd": 1710,
      "mercuri": 1711,
      "multiple": 1712,
      "m68k": 1713,
      "mn10300": 1714,
      "native": 1715,
      "nspr": 1716,
      "nuvoton": 1717,
      "overri": 1718,
      "output": 1719,
      "places": 1720,
      "route": 1721,
      "simple": 1722,
      "solicit": 1723,
      "sandbox": 1724,
      "s390": 1725,
      "termin": 1726,
      "tree": 1727,
      "talos": 1728,
      "touchscreen": 1729,
      "tumbler": 1730,
      "w3m": 1731,
      "wants": 1732,
      "shadow": 1733,
      "mountinfo": 1734,
      "promise": 1735,
      "webconsole": 1736,
      "libffi": 1737,
      "taskcluster": 1738,
      "sphinxbase": 1739,
      "thinkpad": 1740,
      "contenttype": 1741,
      "suupdatepermissionpr": 1742,
      "autocomplete": 1743,
      "eclipse": 1744,
      "crashreporter": 1745,
      "cmdline": 1746,
      "initramfs": 1747,
      "jsonlz4": 1748,
      "serial8250": 1749,
      "geckoview": 1750,
      "mercurial": 1751,
      "suupdatepermissionprompt": 1752,
      "03": 1753,
      "07": 1754,
      "048": 1755,
      "1d": 1756,
      "126": 1757,
      "128": 1758,
      "108": 1759,
      "127": 1760,
      "103": 1761,
      "191": 1762,
      "1df": 1763,
      "1218": 1764,
      "2d": 1765,
      "23": 1766,
      "21": 1767,
      "27": 1768,
      "232": 1769,
      "251": 1770,
      "234": 1771,
      "236": 1772,
      "225": 1773,
      "237": 1774,
      "2983": 1775,
      "33": 1776,
      "35": 1777,
      "37": 1778,
      "3db": 1779,
      "32c": 1780,
      "44": 1781,
      "46": 1782,
      "47": 1783,
      "432": 1784,
      "4294": 1785,
      "4wa": 1786,
      "4382": 1787,
      "53": 1788,
      "511": 1789,
      "509": 1790,
      "558": 1791,
      "6x": 1792,
      "66": 1793,
      "61": 1794,
      "67": 1795,
      "6ac": 1796,
      "656": 1797,
      "74": 1798,
      "72": 1799,
      "70": 1800,
      "71": 1801,
      "7bc": 1802,
      "759": 1803,
      "8l": 1804,
      "89": 1805,
      "8y": 1806,
      "828": 1807,
      "808": 1808,
      "847": 1809,
      "86c": 1810,
      "9c": 1811,
      "95": 1812,
      "90": 1813,
      "9u": 1814,
      "939": 1815,
      "911": 1816,
      "92d": 1817,
      "9451": 1818,
      "9186": 1819,
      "am": 1820,
      "av": 1821,
      "aes": 1822,
      "aed": 1823,
      "ass": 1824,
      "art": 1825,
      "ath": 1826,
      "aty": 1827,
      "bx": 1828,
      "b4": 1829,
      "bf": 1830,
      "b9": 1831,
      "ba": 1832,
      "bg": 1833,
      "bal": 1834,
      "ben": 1835,
      "bro": 1836,
      "bit": 1837,
      "bid": 1838,
      "btr": 1839,
      "bb5": 1840,
      "bm2": 1841,
      "bht": 1842,
      "bdev": 1843,
      "ci": 1844,
      "cx": 1845,
      "ct": 1846,
      "cp": 1847,
      "cc": 1848,
      "cf": 1849,
      "c2": 1850,
      "c7": 1851,
      "cn": 1852,
      "cw": 1853,
      "cy": 1854,
      "cre": 1855,
      "cal": 1856,
      "cat": 1857,
      "cent": 1858,
      "cool": 1859,
      "ciss": 1860,
      "c06": 1861,
      "cis": 1862,
      "cris": 1863,
      "db": 1864,
      "dl": 1865,
      "dc": 1866,
      "d5": 1867,
      "d6": 1868,
      "dv": 1869,
      "das": 1870,
      "dig": 1871,
      "d09": 1872,
      "dub": 1873,
      "dbc": 1874,
      "drb": 1875,
      "dots": 1876,
      "dke": 1877,
      "dns": 1878,
      "dbus": 1879,
      "dpub": 1880,
      "ep": 1881,
      "e5": 1882,
      "ead": 1883,
      "ear": 1884,
      "esp": 1885,
      "efi": 1886,
      "efb": 1887,
      "e057": 1888,
      "fm": 1889,
      "f8": 1890,
      "fre": 1891,
      "far": 1892,
      "fla": 1893,
      "flas": 1894,
      "fast": 1895,
      "gb": 1896,
      "gp": 1897,
      "go": 1898,
      "gs": 1899,
      "gom": 1900,
      "gcon": 1901,
      "game": 1902,
      "gir": 1903,
      "gfs": 1904,
      "gconf": 1905,
      "gui": 1906,
      "gzj": 1907,
      "hp": 1908,
      "hk": 1909,
      "h6": 1910,
      "h1": 1911,
      "hn": 1912,
      "hal": 1913,
      "hys": 1914,
      "hor": 1915,
      "hum": 1916,
      "hun": 1917,
      "hot": 1918,
      "hid": 1919,
      "h26": 1920,
      "hop": 1921,
      "hyst": 1922,
      "hci": 1923,
      "hgro": 1924,
      "hash": 1925,
      "it": 1926,
      "i2": 1927,
      "i5": 1928,
      "ig": 1929,
      "irc": 1930,
      "ipt": 1931,
      "itc": 1932,
      "i91": 1933,
      "i81": 1934,
      "ji": 1935,
      "j2": 1936,
      "jg": 1937,
      "jre": 1938,
      "jar": 1939,
      "jit": 1940,
      "jap": 1941,
      "jock": 1942,
      "jb8": 1943,
      "jka": 1944,
      "jax": 1945,
      "kr": 1946,
      "kg": 1947,
      "kon": 1948,
      "kde": 1949,
      "kee": 1950,
      "kvm": 1951,
      "lt": 1952,
      "ll": 1953,
      "ld": 1954,
      "lim": 1955,
      "land": 1956,
      "lite": 1957,
      "last": 1958,
      "mc": 1959,
      "m4": 1960,
      "ms": 1961,
      "mu": 1962,
      "mv": 1963,
      "mon": 1964,
      "men": 1965,
      "mit": 1966,
      "mid": 1967,
      "msi": 1968,
      "mct": 1969,
      "mission": 1970,
      "mime": 1971,
      "mld": 1972,
      "mall": 1973,
      "mmap": 1974,
      "mfd": 1975,
      "mips": 1976,
      "mfb": 1977,
      "m5f": 1978,
      "nf": 1979,
      "ng": 1980,
      "nw": 1981,
      "nas": 1982,
      "num": 1983,
      "necko": 1984,
      "or": 1985,
      "of": 1986,
      "oq": 1987,
      "oro": 1988,
      "opu": 1989,
      "oper": 1990,
      "omap": 1991,
      "pb": 1992,
      "pt": 1993,
      "pd": 1994,
      "po": 1995,
      "pm": 1996,
      "p2": 1997,
      "ps": 1998,
      "ph": 1999,
      "pw": 2000,
      "pch": 2001,
      "pul": 2002,
      "pas": 2003,
      "ping": 2004,
      "pan": 2005,
      "pla": 2006,
      "pyd": 2007,
      "ptp": 2008,
      "pid": 2009,
      "pock": 2010,
      "port": 2011,
      "pages": 2012,
      "pos": 2013,
      "pup": 2014,
      "path": 2015,
      "pass": 2016,
      "pdf": 2017,
      "pm2": 2018,
      "pip": 2019,
      "plas": 2020,
      "pari": 2021,
      "pgot": 2022,
      "pris": 2023,
      "pssh": 2024,
      "peak": 2025,
      "qinfo": 2026,
      "rt": 2027,
      "rc": 2028,
      "ren": 2029,
      "rad": 2030,
      "rem": 2031,
      "rol": 2032,
      "ram": 2033,
      "rand": 2034,
      "rdf": 2035,
      "ruy": 2036,
      "rzrn": 2037,
      "sl": 2038,
      "sr": 2039,
      "sv": 2040,
      "sn": 2041,
      "sw": 2042,
      "sal": 2043,
      "sib": 2044,
      "sig": 2045,
      "sit": 2046,
      "sel": 2047,
      "sam": 2048,
      "sort": 2049,
      "sans": 2050,
      "sian": 2051,
      "sx1": 2052,
      "s97": 2053,
      "sdr": 2054,
      "ti": 2055,
      "tm": 2056,
      "ta": 2057,
      "toc": 2058,
      "tri": 2059,
      "tor": 2060,
      "tun": 2061,
      "tps": 2062,
      "tim": 2063,
      "table": 2064,
      "tcl": 2065,
      "tcp": 2066,
      "tcpu": 2067,
      "ud": 2068,
      "uc": 2069,
      "u3": 2070,
      "uid": 2071,
      "uth": 2072,
      "u2f": 2073,
      "udp": 2074,
      "udev": 2075,
      "vo": 2076,
      "vm": 2077,
      "v4": 2078,
      "vg": 2079,
      "ves": 2080,
      "v32": 2081,
      "v11": 2082,
      "vme": 2083,
      "vari": 2084,
      "vertex": 2085,
      "w6": 2086,
      "ws": 2087,
      "wy": 2088,
      "wil": 2089,
      "watch": 2090,
      "wext": 2091,
      "wmi": 2092,
      "w400": 2093,
      "wacom": 2094,
      "xb": 2095,
      "xd": 2096,
      "xp": 2097,
      "xv": 2098,
      "xz": 2099,
      "xfo": 2100,
      "xch": 2101,
      "xul": 2102,
      "xor": 2103,
      "xub": 2104,
      "xht": 2105,
      "xb9": 2106,
      "xserv": 2107,
      "xhr": 2108,
      "yi": 2109,
      "yo": 2110,
      "y4": 2111,
      "y7": 2112,
      "ysi": 2113,
      "yout": 2114,
      "yqi": 2115,
      "zb": 2116,
      "zen": 2117,
      "zvj": 2118,
      "zone": 2119,
      "##i6": 2120,
      "##ih": 2121,
      "##ier": 2122,
      "##iat": 2123,
      "##imin": 2124,
      "##ief": 2125,
      "##ize": 2126,
      "##bx": 2127,
      "##b4": 2128,
      "##bf": 2129,
      "##b3": 2130,
      "##ba": 2131,
      "##b6": 2132,
      "##bal": 2133,
      "##bri": 2134,
      "##brows": 2135,
      "##but": 2136,
      "##bab": 2137,
      "##back": 2138,
      "##b48": 2139,
      "##bio": 2140,
      "##b0a": 2141,
      "##b81": 2142,
      "##bef": 2143,
      "##bede": 2144,
      "##b787": 2145,
      "##xo": 2146,
      "##x5": 2147,
      "##x6": 2148,
      "##xv": 2149,
      "##xag": 2150,
      "##x24": 2151,
      "##xext": 2152,
      "##xfs": 2153,
      "##x0a": 2154,
      "##xfi": 2155,
      "##x3b": 2156,
      "##x2s": 2157,
      "##xpress": 2158,
      "##ep": 2159,
      "##eo": 2160,
      "##e3": 2161,
      "##e5": 2162,
      "##eu": 2163,
      "##eg": 2164,
      "##eh": 2165,
      "##ey": 2166,
      "##eq": 2167,
      "##ear": 2168,
      "##eed": 2169,
      "##eel": 2170,
      "##e01": 2171,
      "##e27": 2172,
      "##e03": 2173,
      "##eef": 2174,
      "##eath": 2175,
      "##e9e": 2176,
      "##e23": 2177,
      "##e5a": 2178,
      "##e382": 2179,
      "##tt": 2180,
      "##ter": 2181,
      "##ting": 2182,
      "##ted": 2183,
      "##tow": 2184,
      "##tab": 2185,
      "##tend": 2186,
      "##tect": 2187,
      "##text": 2188,
      "##tm2": 2189,
      "##lm": 2190,
      "##l0": 2191,
      "##len": 2192,
      "##ling": 2193,
      "##led": 2194,
      "##list": 2195,
      "##line": 2196,
      "##lite": 2197,
      "##lrn": 2198,
      "##load": 2199,
      "##limin": 2200,
      "##dt": 2201,
      "##dd": 2202,
      "##dc": 2203,
      "##d0": 2204,
      "##d8": 2205,
      "##ds": 2206,
      "##dw": 2207,
      "##dal": 2208,
      "##dfa": 2209,
      "##d32": 2210,
      "##d48": 2211,
      "##dff": 2212,
      "##d34": 2213,
      "##dca": 2214,
      "##d57": 2215,
      "##dd9": 2216,
      "##dict": 2217,
      "##d30": 2218,
      "##dicat": 2219,
      "##pe": 2220,
      "##p0": 2221,
      "##plu": 2222,
      "##pec": 2223,
      "##pop": 2224,
      "##page": 2225,
      "##plugin": 2226,
      "##pete": 2227,
      "##rr": 2228,
      "##rre": 2229,
      "##roc": 2230,
      "##ron": 2231,
      "##rat": 2232,
      "##rul": 2233,
      "##ryd": 2234,
      "##run": 2235,
      "##r32": 2236,
      "##ryst": 2237,
      "##rpc": 2238,
      "##runtime": 2239,
      "##ok": 2240,
      "##o6": 2241,
      "##o8": 2242,
      "##ov": 2243,
      "##oy": 2244,
      "##oim": 2245,
      "##oding": 2246,
      "##cm": 2247,
      "##c2": 2248,
      "##c0": 2249,
      "##c6": 2250,
      "##c7": 2251,
      "##ces": 2252,
      "##cers": 2253,
      "##cf2": 2254,
      "##cff": 2255,
      "##c21": 2256,
      "##cmp": 2257,
      "##c94": 2258,
      "##call": 2259,
      "##cfd": 2260,
      "##cb8": 2261,
      "##c3b": 2262,
      "##c128": 2263,
      "##crypto": 2264,
      "##cdr": 2265,
      "##cd1": 2266,
      "##c91a": 2267,
      "##cbede": 2268,
      "##cx6": 2269,
      "##mk": 2270,
      "##m0": 2271,
      "##m1": 2272,
      "##mz": 2273,
      "##mal": 2274,
      "##men": 2275,
      "##mat": 2276,
      "##mit": 2277,
      "##mel": 2278,
      "##mun": 2279,
      "##mand": 2280,
      "##mapp": 2281,
      "##mark": 2282,
      "##mount": 2283,
      "##kr": 2284,
      "##k9": 2285,
      "##ku": 2286,
      "##kn": 2287,
      "##kg": 2288,
      "##ker": 2289,
      "##krg": 2290,
      "##45": 2291,
      "##4n": 2292,
      "##408": 2293,
      "##407": 2294,
      "##438": 2295,
      "##457": 2296,
      "##4b5": 2297,
      "##402": 2298,
      "##4d4": 2299,
      "##4b0": 2300,
      "##4f8": 2301,
      "##430": 2302,
      "##4e26": 2303,
      "##4ief": 2304,
      "##fw": 2305,
      "##fy": 2306,
      "##fri": 2307,
      "##ful": 2308,
      "##fec": 2309,
      "##frt": 2310,
      "##f73": 2311,
      "##f08": 2312,
      "##f55": 2313,
      "##filt": 2314,
      "##f47": 2315,
      "##fd9": 2316,
      "##files": 2317,
      "##f56": 2318,
      "##f517": 2319,
      "##fe6": 2320,
      "##90": 2321,
      "##9n": 2322,
      "##9g": 2323,
      "##9ea": 2324,
      "##937": 2325,
      "##9201": 2326,
      "##9f8": 2327,
      "##9f1": 2328,
      "##9d0": 2329,
      "##3a": 2330,
      "##3la": 2331,
      "##3ed": 2332,
      "##3ec": 2333,
      "##373": 2334,
      "##391": 2335,
      "##334": 2336,
      "##307": 2337,
      "##337": 2338,
      "##3xx": 2339,
      "##3c0": 2340,
      "##2a": 2341,
      "##2j": 2342,
      "##2v": 2343,
      "##2ec": 2344,
      "##2test": 2345,
      "##208": 2346,
      "##255": 2347,
      "##296": 2348,
      "##206": 2349,
      "##299": 2350,
      "##295": 2351,
      "##298": 2352,
      "##204": 2353,
      "##2x1": 2354,
      "##2e4": 2355,
      "##29a": 2356,
      "##2ed8": 2357,
      "##2218": 2358,
      "##5in": 2359,
      "##5pl": 2360,
      "##534": 2361,
      "##50a": 2362,
      "##546": 2363,
      "##536": 2364,
      "##5d4": 2365,
      "##5df": 2366,
      "##5x24": 2367,
      "##0v": 2368,
      "##051": 2369,
      "##027": 2370,
      "##0d9": 2371,
      "##0b1": 2372,
      "##0e7": 2373,
      "##0bf": 2374,
      "##0e5a": 2375,
      "##0cd1": 2376,
      "##a4": 2377,
      "##a5": 2378,
      "##aa": 2379,
      "##ah": 2380,
      "##aw": 2381,
      "##aq": 2382,
      "##ach": 2383,
      "##ace": 2384,
      "##aut": 2385,
      "##a28": 2386,
      "##a51": 2387,
      "##a07": 2388,
      "##a5e": 2389,
      "##ax1": 2390,
      "##aew": 2391,
      "##a3b": 2392,
      "##a59": 2393,
      "##a9f1": 2394,
      "##a337": 2395,
      "##6t": 2396,
      "##65": 2397,
      "##600": 2398,
      "##601": 2399,
      "##621": 2400,
      "##603": 2401,
      "##604": 2402,
      "##6d6": 2403,
      "##6c4": 2404,
      "##6b9": 2405,
      "##6b2": 2406,
      "##6299": 2407,
      "##6a3b": 2408,
      "##88": 2409,
      "##8fa": 2410,
      "##800": 2411,
      "##826": 2412,
      "##808": 2413,
      "##891": 2414,
      "##877": 2415,
      "##899": 2416,
      "##895": 2417,
      "##85e": 2418,
      "##802": 2419,
      "##82d": 2420,
      "##8e4": 2421,
      "##8b8": 2422,
      "##8tm2": 2423,
      "##1r": 2424,
      "##14": 2425,
      "##17": 2426,
      "##1g": 2427,
      "##1ob": 2428,
      "##1ma": 2429,
      "##177": 2430,
      "##166": 2431,
      "##1fe6": 2432,
      "##13xx": 2433,
      "##1a4": 2434,
      "##75": 2435,
      "##70": 2436,
      "##7ab": 2437,
      "##728": 2438,
      "##7b5": 2439,
      "##795": 2440,
      "##72d": 2441,
      "##741": 2442,
      "##723": 2443,
      "##7e8": 2444,
      "##7400": 2445,
      "##7122": 2446,
      "##79d0": 2447,
      "##jar": 2448,
      "##jrg": 2449,
      "##jav": 2450,
      "##ject": 2451,
      "##jax": 2452,
      "##jx2s": 2453,
      "##s2": 2454,
      "##s6": 2455,
      "##su": 2456,
      "##sn": 2457,
      "##sent": 2458,
      "##sort": 2459,
      "##svg": 2460,
      "##upt": 2461,
      "##uff": 2462,
      "##ucers": 2463,
      "##v2": 2464,
      "##ves": 2465,
      "##val": 2466,
      "##vor": 2467,
      "##vid": 2468,
      "##vte": 2469,
      "##vertex": 2470,
      "##vtt": 2471,
      "##vl0": 2472,
      "##v5in": 2473,
      "##ni": 2474,
      "##nt": 2475,
      "##nl": 2476,
      "##np": 2477,
      "##nw": 2478,
      "##ner": 2479,
      "##nad": 2480,
      "##ntr": 2481,
      "##nav": 2482,
      "##nect": 2483,
      "##nert": 2484,
      "##nts": 2485,
      "##nore": 2486,
      "##ge": 2487,
      "##gen": 2488,
      "##ging": 2489,
      "##gle": 2490,
      "##gtk": 2491,
      "##g80": 2492,
      "##ght": 2493,
      "##gb3": 2494,
      "##g9n": 2495,
      "##gjrg": 2496,
      "##hz": 2497,
      "##hen": 2498,
      "##hic": 2499,
      "##hing": 2500,
      "##hel": 2501,
      "##hand": 2502,
      "##hcp": 2503,
      "##hint": 2504,
      "##history": 2505,
      "##haew": 2506,
      "##h1ob": 2507,
      "##zz": 2508,
      "##zon": 2509,
      "##zable": 2510,
      "##zc4": 2511,
      "##zxv": 2512,
      "##z0v": 2513,
      "##z6t": 2514,
      "##wd": 2515,
      "##wm": 2516,
      "##wy": 2517,
      "##wan": 2518,
      "##wireless": 2519,
      "##wacom": 2520,
      "##wxo": 2521,
      "##weath": 2522,
      "##wkr": 2523,
      "##w2v": 2524,
      "##ye": 2525,
      "##yle": 2526,
      "##yout": 2527,
      "##ybox": 2528,
      "##qv": 2529,
      "##qrt": 2530,
      "##qis": 2531,
      "##q2s": 2532,
      "##qsort": 2533,
      "##qwxo": 2534,
      "users": 2535,
      "used": 2536,
      "ustr": 2537,
      "##erf": 2538,
      "##er0": 2539,
      "##ery": 2540,
      "##eres": 2541,
      "##eren": 2542,
      "##erat": 2543,
      "##erro": 2544,
      "##erag": 2545,
      "##erec": 2546,
      "##erformance": 2547,
      "##erok": 2548,
      "##ermal": 2549,
      "##indn": 2550,
      "##insp": 2551,
      "##infi": 2552,
      "##index": 2553,
      "##recp": 2554,
      "##reutils": 2555,
      "##ese": 2556,
      "##esas": 2557,
      "##esdb": 2558,
      "##esmas": 2559,
      "##ese7": 2560,
      "##espec": 2561,
      "##esqrt": 2562,
      "##ocess": 2563,
      "fib": 2564,
      "fifo": 2565,
      "fixt": 2566,
      "##alys": 2567,
      "##alert": 2568,
      "##alics": 2569,
      "##albl": 2570,
      "##omm": 2571,
      "##omat": 2572,
      "##omag": 2573,
      "firebug": 2574,
      "##onf": 2575,
      "##onde": 2576,
      "##ontend": 2577,
      "lockt": 2578,
      "localnet": 2579,
      "54177": 2580,
      "##rce": 2581,
      "##rcpl": 2582,
      "##rcode": 2583,
      "##ening": 2584,
      "testapi": 2585,
      "testpr": 2586,
      "linkt": 2587,
      "linzj": 2588,
      "deab": 2589,
      "depl": 2590,
      "detect": 2591,
      "defrt": 2592,
      "dejav": 2593,
      "##icus": 2594,
      "##ication": 2595,
      "##icial": 2596,
      "##icupdate": 2597,
      "##char": 2598,
      "##chine": 2599,
      "##ch68": 2600,
      "##channel": 2601,
      "##attri": 2602,
      "##atesdb": 2603,
      "mous": 2604,
      "moreutils": 2605,
      "1324": 2606,
      "1331": 2607,
      "1357": 2608,
      "1398": 2609,
      "1320": 2610,
      "##adap": 2611,
      "1444": 2612,
      "heim": 2613,
      "hexag": 2614,
      "info": 2615,
      "inform": 2616,
      "inst": 2617,
      "invers": 2618,
      "indicat": 2619,
      "inval": 2620,
      "innert": 2621,
      "##chemas": 2622,
      "##cheese7": 2623,
      "concre": 2624,
      "conntr": 2625,
      "##iler": 2626,
      "##iload": 2627,
      "##ribut": 2628,
      "##ripe": 2629,
      "##ulist": 2630,
      "##ulation": 2631,
      "##ulex": 2632,
      "capt": 2633,
      "camp": 2634,
      "##depd": 2635,
      "##debug": 2636,
      "##deafc": 2637,
      "##degen": 2638,
      "devel": 2639,
      "##etl": 2640,
      "##ets": 2641,
      "##eters": 2642,
      "##etyp": 2643,
      "##etoot": 2644,
      "prom": 2645,
      "prst": 2646,
      "prun": 2647,
      "prog": 2648,
      "prov": 2649,
      "##eb96": 2650,
      "##eb0d": 2651,
      "##ebuff": 2652,
      "##asi": 2653,
      "##assi": 2654,
      "##ascript": 2655,
      "##ib2": 2656,
      "##iband": 2657,
      "homepage": 2658,
      "shares": 2659,
      "webid": 2660,
      "webapps": 2661,
      "webcrypto": 2662,
      "webvtt": 2663,
      "adi": 2664,
      "adc": 2665,
      "adwa": 2666,
      "libst": 2667,
      "libap": 2668,
      "libww": 2669,
      "libgl": 2670,
      "libav": 2671,
      "libus": 2672,
      "libert": 2673,
      "libpc": 2674,
      "libca": 2675,
      "libis": 2676,
      "libht": 2677,
      "libint": 2678,
      "libxext": 2679,
      "liblist": 2680,
      "libpop": 2681,
      "libvte": 2682,
      "libnl": 2683,
      "libwacom": 2684,
      "libcheese7": 2685,
      "##ems": 2686,
      "##emon": 2687,
      "##emap": 2688,
      "##ements": 2689,
      "##igest": 2690,
      "##rog": 2691,
      "##root": 2692,
      "##role": 2693,
      "##rols": 2694,
      "includedir": 2695,
      "gentest": 2696,
      "genex": 2697,
      "generat": 2698,
      "##ericalbl": 2699,
      "##arse": 2700,
      "mozall": 2701,
      "mozgtk": 2702,
      "chunk": 2703,
      "chang": 2704,
      "channel": 2705,
      "cherok": 2706,
      "##olog": 2707,
      "##ansi": 2708,
      "##android": 2709,
      "##anity": 2710,
      "##anplu": 2711,
      "##anese": 2712,
      "##analys": 2713,
      "configure": 2714,
      "##86d": 2715,
      "##860": 2716,
      "##86f2": 2717,
      "##86294": 2718,
      "##86430": 2719,
      "##86891": 2720,
      "##layout": 2721,
      "##lations": 2722,
      "##edit": 2723,
      "##edback": 2724,
      "6406": 2725,
      "##strm": 2726,
      "##stit": 2727,
      "##stick": 2728,
      "##sthr": 2729,
      "##start": 2730,
      "##statesdb": 2731,
      "##stripe": 2732,
      "commun": 2733,
      "pct": 2734,
      "pclm": 2735,
      "##face": 2736,
      "##fa34": 2737,
      "##fa54": 2738,
      "##ita": 2739,
      "##itive": 2740,
      "##itional": 2741,
      "##ion2": 2742,
      "##ion1": 2743,
      "##ionall": 2744,
      "##ion04": 2745,
      "##f225": 2746,
      "##f242": 2747,
      "##f2027": 2748,
      "objlayout": 2749,
      "default16": 2750,
      "##o200": 2751,
      "##omizable": 2752,
      "##unar": 2753,
      "##un1r": 2754,
      "revers": 2755,
      "reach": 2756,
      "reject": 2757,
      "##ce01": 2758,
      "##ce46": 2759,
      "docker": 2760,
      "docroot": 2761,
      "##version04": 2762,
      "##ec0d": 2763,
      "##econf": 2764,
      "##tpd": 2765,
      "##sserv": 2766,
      "##ssapi": 2767,
      "netware": 2768,
      "network": 2769,
      "netcm": 2770,
      "netfilt": 2771,
      "##aptics": 2772,
      "##apsh": 2773,
      "##apnp": 2774,
      "##otes": 2775,
      "##otation": 2776,
      "##otconf": 2777,
      "##otrul": 2778,
      "##00e382": 2779,
      "##009ea": 2780,
      "httpclient": 2781,
      "##gines": 2782,
      "##rastr": 2783,
      "##acer": 2784,
      "##aces": 2785,
      "##acters": 2786,
      "##acron": 2787,
      "pypre": 2788,
      "stick": 2789,
      "style": 2790,
      "##thand": 2791,
      "##third": 2792,
      "##therec": 2793,
      "##conns": 2794,
      "##connect": 2795,
      "##psup": 2796,
      "##ute": 2797,
      "##utls": 2798,
      "browsing": 2799,
      "archive": 2800,
      "imbal": 2801,
      "##pt2": 2802,
      "00tr": 2803,
      "enab": 2804,
      "engines": 2805,
      "hbodoc": 2806,
      "hbostore": 2807,
      "hboxpress": 2808,
      "hboonde": 2809,
      "buck": 2810,
      "jsm": 2811,
      "tr1": 2812,
      "trv": 2813,
      "trace": 2814,
      "transi": 2815,
      "tracer": 2816,
      "##isted": 2817,
      "metag": 2818,
      "metho": 2819,
      "##ameters": 2820,
      "##amebuff": 2821,
      "and": 2822,
      "anon": 2823,
      "angle": 2824,
      "anacron": 2825,
      "dark": 2826,
      "distribut": 2827,
      "##own": 2828,
      "##errupt": 2829,
      "span": 2830,
      "spee": 2831,
      "sparse": 2832,
      "conformance2": 2833,
      "theme": 2834,
      "thermal": 2835,
      "thinfi": 2836,
      "thesmas": 2837,
      "thunar": 2838,
      "##26fa34": 2839,
      "api": 2840,
      "apport": 2841,
      "applicat": 2842,
      "##yphs": 2843,
      "acl": 2844,
      "##abf1": 2845,
      "##abd8": 2846,
      "##ab0e5a": 2847,
      "atmel": 2848,
      "binutils": 2849,
      "make": 2850,
      "##img": 2851,
      "##320": 2852,
      "##32ef": 2853,
      "##3209": 2854,
      "##3202": 2855,
      "##32c21": 2856,
      "##3250a": 2857,
      "##0136": 2858,
      "##0181": 2859,
      "##0157": 2860,
      "##01c6": 2861,
      "##glyphs": 2862,
      "ipx": 2863,
      "ipack": 2864,
      "ipwireless": 2865,
      "memmap": 2866,
      "memcheck": 2867,
      "memstick": 2868,
      "##oup": 2869,
      "##ous": 2870,
      "##atcher": 2871,
      "elf": 2872,
      "ellen": 2873,
      "perchannel": 2874,
      "scop": 2875,
      "##agesize": 2876,
      "16da": 2877,
      "1698": 2878,
      "16x1": 2879,
      "16173": 2880,
      "16438": 2881,
      "16826": 2882,
      "glget": 2883,
      "glsl": 2884,
      "gl2test": 2885,
      "patches": 2886,
      "##lproc": 2887,
      "##lperf": 2888,
      "##oper": 2889,
      "##2834": 2890,
      "##28802": 2891,
      "##28009ea": 2892,
      "contents": 2893,
      "context": 2894,
      "control": 2895,
      "controls": 2896,
      "state": 2897,
      "statements": 2898,
      "component": 2899,
      "classi": 2900,
      "unix": 2901,
      "unity": 2902,
      "unkn": 2903,
      "unhint": 2904,
      "unwan": 2905,
      "xfconf": 2906,
      "##ificus": 2907,
      "##488": 2908,
      "##48d2": 2909,
      "##482ed8": 2910,
      "##733": 2911,
      "##730": 2912,
      "##7347": 2913,
      "internet": 2914,
      "internal": 2915,
      "integ": 2916,
      "interrupt": 2917,
      "memory9": 2918,
      "memory55": 2919,
      "memory255": 2920,
      "memory65": 2921,
      "secure": 2922,
      "##512f": 2923,
      "##516c4": 2924,
      "##0824": 2925,
      "##avid": 2926,
      "##ervis": 2927,
      "from": 2928,
      "frontend": 2929,
      "framebuff": 2930,
      "##iromm": 2931,
      "gnome2": 2932,
      "blk": 2933,
      "bltest": 2934,
      "sudo": 2935,
      "suaut": 2936,
      "##plc": 2937,
      "##pler": 2938,
      "##ff0": 2939,
      "##ffd9": 2940,
      "##ffice": 2941,
      "##ffdff": 2942,
      "##fff56": 2943,
      "extension1": 2944,
      "2403": 2945,
      "2439": 2946,
      "2437": 2947,
      "24201": 2948,
      "24f9": 2949,
      "2444": 2950,
      "##214": 2951,
      "##211": 2952,
      "##21d4": 2953,
      "##21996": 2954,
      "##21cbede": 2955,
      "##217122": 2956,
      "##2100e382": 2957,
      "##277": 2958,
      "##27d9": 2959,
      "##27787": 2960,
      "##27546": 2961,
      "##27895": 2962,
      "##271a4": 2963,
      "addr": 2964,
      "address": 2965,
      "additional": 2966,
      "##ector": 2967,
      "fdi": 2968,
      "packaging": 2969,
      "##ofs6": 2970,
      "##2422": 2971,
      "##2412": 2972,
      "##24c7": 2973,
      "##243a": 2974,
      "##556": 2975,
      "##558": 2976,
      "##5547": 2977,
      "##55a1": 2978,
      "##55eef": 2979,
      "##55795": 2980,
      "##0396": 2981,
      "##03a8": 2982,
      "##037e8": 2983,
      "##ustcdr": 2984,
      "busybox": 2985,
      "1588": 2986,
      "1586294": 2987,
      "185": 2988,
      "1891": 2989,
      "1802": 2990,
      "18728": 2991,
      "1821996": 2992,
      "1827546": 2993,
      "178": 2994,
      "1709": 2995,
      "1782": 2996,
      "except": 2997,
      "express": 2998,
      "exthand": 2999,
      "need": 3000,
      "news": 3001,
      "negot": 3002,
      "neomag": 3003,
      "node": 3004,
      "norole": 3005,
      "tty48": 3006,
      "tty25": 3007,
      "tty16": 3008,
      "##96a8": 3009,
      "##96c94": 3010,
      "##964f8": 3011,
      "##965df": 3012,
      "##918": 3013,
      "##9127": 3014,
      "##91122": 3015,
      "##341": 3016,
      "##34d9": 3017,
      "##342ec": 3018,
      "pnpbio": 3019,
      "4851": 3020,
      "cpu4": 3021,
      "cpu0": 3022,
      "cpu6": 3023,
      "cpu1": 3024,
      "cpuidle": 3025,
      "emu": 3026,
      "embl": 3027,
      "emulex": 3028,
      "javascript": 3029,
      "layfw": 3030,
      "parse": 3031,
      "parser": 3032,
      "parameters": 3033,
      "##mp6": 3034,
      "##machine": 3035,
      "##0a964f8": 3036,
      "##07b0": 3037,
      "##0756": 3038,
      "##772e4": 3039,
      "##77a337": 3040,
      "##77deafc": 3041,
      "##77730": 3042,
      "##ationinsp": 3043,
      "##ystone": 3044,
      "##agefri": 3045,
      "builtin": 3046,
      "addon3": 3047,
      "hod": 3048,
      "##evxfs": 3049,
      "##da7": 3050,
      "##dayp": 3051,
      "##da41": 3052,
      "##daoim": 3053,
      "##da0bf": 3054,
      "##daa28": 3055,
      "##dazz": 3056,
      "##dnr": 3057,
      "##oscript": 3058,
      "##4631": 3059,
      "##462d": 3060,
      "##46201": 3061,
      "##4620": 3062,
      "##46603": 3063,
      "##38e27": 3064,
      "##38d48": 3065,
      "##38051": 3066,
      "##388e4": 3067,
      "##310": 3068,
      "##3125": 3069,
      "##315f": 3070,
      "##2206": 3071,
      "##225e": 3072,
      "##spaces": 3073,
      "##spatcher": 3074,
      "##ertion": 3075,
      "filters": 3076,
      "building": 3077,
      "active": 3078,
      "client3": 3079,
      "lnxvi": 3080,
      "lnxcpu": 3081,
      "layouts": 3082,
      "205e": 3083,
      "20third": 3084,
      "2021cbede": 3085,
      "autoscript": 3086,
      "ecb": 3087,
      "ecf": 3088,
      "idx": 3089,
      "idle": 3090,
      "idversion04": 3091,
      "manip": 3092,
      "sourcemap": 3093,
      "##exb": 3094,
      "##ea30": 3095,
      "##ea6b2": 3096,
      "##dbas": 3097,
      "##39ee": 3098,
      "##39cf2": 3099,
      "##39206": 3100,
      "##3627787": 3101,
      "##25f7": 3102,
      "##2534d9": 3103,
      "##064": 3104,
      "##0668": 3105,
      "##061fe6": 3106,
      "##81b5": 3107,
      "##81f6": 3108,
      "##81a07": 3109,
      "##ignon": 3110,
      "thirdparty": 3111,
      "pngsu": 3112,
      "host0": 3113,
      "hosts": 3114,
      "2504": 3115,
      "2582": 3116,
      "252x1": 3117,
      "ali": 3118,
      "aligned": 3119,
      "alx0a": 3120,
      "backup": 3121,
      "backgro": 3122,
      "core": 3123,
      "count": 3124,
      "coding": 3125,
      "isc": 3126,
      "isac": 3127,
      "iso8": 3128,
      "isapnp": 3129,
      "min1ma": 3130,
      "nssb": 3131,
      "noteq": 3132,
      "uriload": 3133,
      "updating": 3134,
      "winapi": 3135,
      "##ca99": 3136,
      "##ca5a": 3137,
      "##470d9": 3138,
      "##47da7": 3139,
      "##99fa54": 3140,
      "##99ec0d": 3141,
      "##9977a337": 3142,
      "##574": 3143,
      "##11util": 3144,
      "##11373": 3145,
      "##uping": 3146,
      "profile": 3147,
      "profiler": 3148,
      "proftpd": 3149,
      "commonjs": 3150,
      "struct": 3151,
      "transform": 3152,
      "translations": 3153,
      "unsigned": 3154,
      "subcl": 3155,
      "subpr": 3156,
      "subdir": 3157,
      "submit": 3158,
      "substit": 3159,
      "1523627787": 3160,
      "mixedcont": 3161,
      "1928": 3162,
      "1931": 3163,
      "1986430": 3164,
      "1051": 3165,
      "105x24": 3166,
      "2202": 3167,
      "22860": 3168,
      "crashtest": 3169,
      "macbuild": 3170,
      "message": 3171,
      "messaging": 3172,
      "prefs": 3173,
      "prelimin": 3174,
      "premount": 3175,
      "present": 3176,
      "##b5c8": 3177,
      "##teorder": 3178,
      "##tax": 3179,
      "##94037e8": 3180,
      "##959f8": 3181,
      "##950e7": 3182,
      "##950668": 3183,
      "##3766": 3184,
      "##37b787": 3185,
      "##2cb6": 3186,
      "##2c55eef": 3187,
      "##5e9e": 3188,
      "##5e2b": 3189,
      "##0921d4": 3190,
      "##68983": 3191,
      "##68315f": 3192,
      "##sc37b787": 3193,
      "##ube": 3194,
      "##ubdoc": 3195,
      "##worker": 3196,
      "caiaq": 3197,
      "libsoup": 3198,
      "libsignon": 3199,
      "libgconf": 3200,
      "libgweath": 3201,
      "libgssapi": 3202,
      "##context": 3203,
      "##control": 3204,
      "domain1": 3205,
      "ata3": 3206,
      "scripting": 3207,
      "intl402": 3208,
      "urls": 3209,
      "canvasmark": 3210,
      "target0": 3211,
      "200204": 3212,
      "4303": 3213,
      "4335": 3214,
      "cmos": 3215,
      "dsa": 3216,
      "dsdl": 3217,
      "dsbx": 3218,
      "dsdt": 3219,
      "irda": 3220,
      "ir4n": 3221,
      "osx": 3222,
      "osd": 3223,
      "optionall": 3224,
      "tmpfy": 3225,
      "workqu": 3226,
      "workspaces": 3227,
      "xptcall": 3228,
      "##bc9977a337": 3229,
      "##dog": 3230,
      "##perf": 3231,
      "##provid": 3232,
      "##rym0": 3233,
      "##clid": 3234,
      "##maps": 3235,
      "##fier": 3236,
      "##9ef242": 3237,
      "##9e38051": 3238,
      "##9e68315f": 3239,
      "##2dd2": 3240,
      "##2f6299": 3241,
      "##04534": 3242,
      "##vgfi": 3243,
      "link3": 3244,
      "links": 3245,
      "infra": 3246,
      "infrastr": 3247,
      "##config": 3248,
      "main2": 3249,
      "screening": 3250,
      "redirects": 3251,
      "1102": 3252,
      "1170": 3253,
      "1168983": 3254,
      "32950668": 3255,
      "arizon": 3256,
      "daemon": 3257,
      "da96a8": 3258,
      "edd": 3259,
      "edu": 3260,
      "mathml": 3261,
      "mathjax": 3262,
      "oneconf": 3263,
      "ontherec": 3264,
      "others": 3265,
      "pkix": 3266,
      "pk11util": 3267,
      "smc": 3268,
      "smil": 3269,
      "small": 3270,
      "smsc37b787": 3271,
      "slaves": 3272,
      "sunrpc": 3273,
      "wheel": 3274,
      "##b0fff56": 3275,
      "##e43202": 3276,
      "##dlck": 3277,
      "##d6186": 3278,
      "##d6e5": 3279,
      "##d67347": 3280,
      "##preact": 3281,
      "##c4061fe6": 3282,
      "##c4b5c8": 3283,
      "##c8079": 3284,
      "##c803a8": 3285,
      "##c80921d4": 3286,
      "##419": 3287,
      "##417": 3288,
      "##fddd9": 3289,
      "##fc47da7": 3290,
      "##97f81": 3291,
      "##9745": 3292,
      "##2b32ef": 3293,
      "##2bda0bf": 3294,
      "##560d4": 3295,
      "##584": 3296,
      "##58abd8": 3297,
      "##a8c9": 3298,
      "##a8448": 3299,
      "##6646": 3300,
      "##669e68315f": 3301,
      "##859": 3302,
      "##85bef": 3303,
      "##85bc9977a337": 3304,
      "##8091": 3305,
      "##80b4": 3306,
      "##80ca5a": 3307,
      "fileapi": 3308,
      "filehand": 3309,
      "initrd": 3310,
      "regress": 3311,
      "accel": 3312,
      "account": 3313,
      "##51728": 3314,
      "##517eb96": 3315,
      "mochijar": 3316,
      "logo": 3317,
      "logs": 3318,
      "notifier": 3319,
      "notification": 3320,
      "screenshooter": 3321,
      "templates": 3322,
      "utils": 3323,
      "1b516c4": 3324,
      "28310": 3325,
      "2557": 3326,
      "7zip": 3327,
      "asb2": 3328,
      "aboutp": 3329,
      "boye": 3330,
      "bluetoot": 3331,
      "curre": 3332,
      "dihaew": 3333,
      "dio200": 3334,
      "dispatcher": 3335,
      "dhclient": 3336,
      "dwc2": 3337,
      "dw8b8": 3338,
      "feedback": 3339,
      "force": 3340,
      "funsize": 3341,
      "gstream": 3342,
      "jpz0v": 3343,
      "june03": 3344,
      "ksdazz": 3345,
      "mimetyp": 3346,
      "quot": 3347,
      "quick": 3348,
      "query": 3349,
      "raid": 3350,
      "reducers": 3351,
      "robotrul": 3352,
      "sbin": 3353,
      "sbstore": 3354,
      "sbkrg": 3355,
      "skin": 3356,
      "skas": 3357,
      "skc9": 3358,
      "signed": 3359,
      "svgglyphs": 3360,
      "telnet": 3361,
      "types": 3362,
      "uu4ief": 3363,
      "vendor": 3364,
      "widlproc": 3365,
      "xt5pl": 3366,
      "zlib1g": 3367,
      "##b9d34": 3368,
      "##e0e6": 3369,
      "##e05e9e": 3370,
      "##e0fc47da7": 3371,
      "##e6726": 3372,
      "##edev": 3373,
      "##edeeed": 3374,
      "##lyear": 3375,
      "##lections": 3376,
      "##rams": 3377,
      "##cihs": 3378,
      "##ciwy": 3379,
      "##key": 3380,
      "##fb7400": 3381,
      "##f924": 3382,
      "##f9f55": 3383,
      "##f8a51": 3384,
      "##350136": 3385,
      "##332eb": 3386,
      "##332aa": 3387,
      "##239127": 3388,
      "##540b1": 3389,
      "##543209": 3390,
      "##5f0": 3391,
      "##50x": 3392,
      "##5a7b5": 3393,
      "##a6d6186": 3394,
      "##8785bc9977a337": 3395,
      "##128x": 3396,
      "##17397f81": 3397,
      "##uvr": 3398,
      "##neterro": 3399,
      "##hsubdoc": 3400,
      "model": 3401,
      "models": 3402,
      "processstatesdb": 3403,
      "encoding": 3404,
      "animationinsp": 3405,
      "visws": 3406,
      "compiler": 3407,
      "compiled": 3408,
      "compilation": 3409,
      "staticruntime": 3410,
      "classic": 3411,
      "supports": 3412,
      "newidle": 3413,
      "newtab": 3414,
      "libgnutls": 3415,
      "irqs": 3416,
      "openssh": 3417,
      "synaptics": 3418,
      "syntax": 3419,
      "searchplugin": 3420,
      "ttys2": 3421,
      "1204534": 3422,
      "1968": 3423,
      "1969201": 3424,
      "2938": 3425,
      "26517": 3426,
      "26064": 3427,
      "4a32": 3428,
      "4a77": 3429,
      "51877": 3430,
      "7646201": 3431,
      "769745": 3432,
      "8151": 3433,
      "814631": 3434,
      "96166": 3435,
      "9627895": 3436,
      "arp": 3437,
      "array": 3438,
      "a3gjrg": 3439,
      "azfec": 3440,
      "bcm": 3441,
      "bcv5in": 3442,
      "bnep": 3443,
      "by8tm2": 3444,
      "byteorder": 3445,
      "bbcimg": 3446,
      "crc32": 3447,
      "collperf": 3448,
      "collections": 3449,
      "custom": 3450,
      "customizable": 3451,
      "duplicat": 3452,
      "dirs": 3453,
      "dirprovid": 3454,
      "euclid": 3455,
      "ftplugin": 3456,
      "gettext": 3457,
      "getful": 3458,
      "groff": 3459,
      "grouping": 3460,
      "hwmon": 3461,
      "hyphen": 3462,
      "hypervis": 3463,
      "iocpsup": 3464,
      "iocpreact": 3465,
      "keys": 3466,
      "keystone": 3467,
      "lisp": 3468,
      "lgc": 3469,
      "lgpl": 3470,
      "larryd": 3471,
      "large": 3472,
      "mlock": 3473,
      "mlx5": 3474,
      "mdc": 3475,
      "micrel": 3476,
      "offscreen": 3477,
      "official": 3478,
      "pixel": 3479,
      "pixmaps": 3480,
      "rdfa": 3481,
      "rdma": 3482,
      "rootanalys": 3483,
      "ranges": 3484,
      "rangdw": 3485,
      "sg2": 3486,
      "sqlite": 3487,
      "social": 3488,
      "setup": 3489,
      "setting": 3490,
      "sensor": 3491,
      "sensors": 3492,
      "sdb1": 3493,
      "tg3": 3494,
      "tgqwxo": 3495,
      "twisted": 3496,
      "tabs": 3497,
      "tabbrows": 3498,
      "textures": 3499,
      "umbri": 3500,
      "version": 3501,
      "versions": 3502,
      "v2011": 3503,
      "v201408": 3504,
      "wlan": 3505,
      "wl128x": 3506,
      "wptserv": 3507,
      "wptrun": 3508,
      "xslt": 3509,
      "x2fmapp": 3510,
      "x2fch68": 3511,
      "##b19ef242": 3512,
      "##e8f9f55": 3513,
      "##e2691a": 3514,
      "##d1cb8": 3515,
      "##pq0": 3516,
      "##pq50": 3517,
      "##crew": 3518,
      "##kao": 3519,
      "##4227d9": 3520,
      "##44838": 3521,
      "##451417": 3522,
      "##f70cd1": 3523,
      "##f812cb6": 3524,
      "##93xx": 3525,
      "##9a96c94": 3526,
      "##3266b9": 3527,
      "##3268fa": 3528,
      "##53c80921d4": 3529,
      "##52751728": 3530,
      "##05753": 3531,
      "##0d4ea30": 3532,
      "##a1950e7": 3533,
      "##6c388e4": 3534,
      "##1f6332eb": 3535,
      "##1f60d4ea30": 3536,
      "##72158": 3537,
      "##7213268fa": 3538,
      "##jsm1": 3539,
      "##uyqi": 3540,
      "##ucture": 3541,
      "##vjpi": 3542,
      "##zmx": 3543,
      "##zmhz": 3544,
      "##reams": 3545,
      "fixed": 3546,
      "debian": 3547,
      "debhel": 3548,
      "movable": 3549,
      "movies": 3550,
      "heapsize": 3551,
      "heapsn": 3552,
      "castcrew": 3553,
      "printer": 3554,
      "printing": 3555,
      "libdigest": 3556,
      "libdotconf": 3557,
      "library": 3558,
      "librsvg": 3559,
      "libmar": 3560,
      "libmdns": 3561,
      "##artup": 3562,
      "##ed8f924": 3563,
      "reader": 3564,
      "readline": 3565,
      "recently": 3566,
      "recentconns": 3567,
      "##action": 3568,
      "storage": 3569,
      "storagesize": 3570,
      "download": 3571,
      "bug55795": 3572,
      "annotation": 3573,
      "annexb": 3574,
      "glib8": 3575,
      "unicore": 3576,
      "unicode": 3577,
      "interface": 3578,
      "interaction": 3579,
      "memory147": 3580,
      "memory193": 3581,
      "memory269": 3582,
      "memory267": 3583,
      "emacsen": 3584,
      "manifests": 3585,
      "manifestparser": 3586,
      "codec": 3587,
      "1523640181": 3588,
      "1523640756": 3589,
      "prefetch": 3590,
      "preferen": 3591,
      "infinity": 3592,
      "infiniband": 3593,
      "pkgconfig": 3594,
      "allowedchar": 3595,
      "clockevent5": 3596,
      "clockevent0": 3597,
      "aboutdebug": 3598,
      "aboutneterro": 3599,
      "boxing": 3600,
      "boxeo": 3601,
      "feature": 3602,
      "features": 3603,
      "formhistory": 3604,
      "functions": 3605,
      "functional": 3606,
      "ksz808": 3607,
      "ksz8091": 3608,
      "telemetry": 3609,
      "telemetryst": 3610,
      "libgnomeui": 3611,
      "aborting": 3612,
      "aborted": 3613,
      "leftnav": 3614,
      "nsprpub": 3615,
      "override": 3616,
      "overrides": 3617,
      "terminfo": 3618,
      "terminolog": 3619,
      "treeadap": 3620,
      "promiseworker": 3621,
      "072c55eef": 3622,
      "048e9e": 3623,
      "1d543209": 3624,
      "10811373": 3625,
      "103584": 3626,
      "1910": 3627,
      "1dfe": 3628,
      "1218451417": 3629,
      "2dcontext": 3630,
      "2386": 3631,
      "2752751728": 3632,
      "23235": 3633,
      "2511": 3634,
      "23475": 3635,
      "23622": 3636,
      "22539": 3637,
      "2378": 3638,
      "3db81a07": 3639,
      "32ccmp": 3640,
      "4450": 3641,
      "460824": 3642,
      "4746": 3643,
      "4321": 3644,
      "4waasi": 3645,
      "5309": 3646,
      "511296": 3647,
      "5093": 3648,
      "5583": 3649,
      "6xih": 3650,
      "6699": 3651,
      "6ac457": 3652,
      "65677": 3653,
      "7139206": 3654,
      "7bc512f": 3655,
      "759ce46": 3656,
      "8lw2v": 3657,
      "89fd": 3658,
      "8yh1ob": 3659,
      "8284": 3660,
      "808350136": 3661,
      "8474d4": 3662,
      "86ccfd": 3663,
      "9c48": 3664,
      "9uaw": 3665,
      "9394620": 3666,
      "911eb0d": 3667,
      "92d2f6299": 3668,
      "94512": 3669,
      "918605753": 3670,
      "amplc": 3671,
      "avr32": 3672,
      "aesni": 3673,
      "aeda9f1": 3674,
      "assertion": 3675,
      "aty128": 3676,
      "bxrym0": 3677,
      "b43": 3678,
      "bf527": 3679,
      "b9cx6": 3680,
      "barcode": 3681,
      "balrog": 3682,
      "benet": 3683,
      "brown": 3684,
      "bitmap": 3685,
      "bidi": 3686,
      "btrfs": 3687,
      "bb58785bc9977a337": 3688,
      "bm2men": 3689,
      "bhtuvr": 3690,
      "cxgb3": 3691,
      "ctxfi": 3692,
      "cpanplu": 3693,
      "cfg80": 3694,
      "c2port": 3695,
      "c717397f81": 3696,
      "cwu": 3697,
      "crew": 3698,
      "calc": 3699,
      "cat2": 3700,
      "center": 3701,
      "c06208": 3702,
      "dbg": 3703,
      "dlink": 3704,
      "dcdbas": 3705,
      "d5fc": 3706,
      "d6f73": 3707,
      "dvb": 3708,
      "das08": 3709,
      "digi": 3710,
      "d09zxv": 3711,
      "dubwkr": 3712,
      "dbc243a": 3713,
      "drbd": 3714,
      "dkez6t": 3715,
      "ep93xx": 3716,
      "e5959f8": 3717,
      "ead29a": 3718,
      "early": 3719,
      "espeak": 3720,
      "efbmk": 3721,
      "e057f70cd1": 3722,
      "fmc": 3723,
      "f8d32": 3724,
      "freevxfs": 3725,
      "farsi": 3726,
      "flavor": 3727,
      "flashsubdoc": 3728,
      "faststripe": 3729,
      "gpmi": 3730,
      "goffice": 3731,
      "gschemas": 3732,
      "gomp": 3733,
      "gconv": 3734,
      "gir1": 3735,
      "gfs2": 3736,
      "guidepd": 3737,
      "gzjmz": 3738,
      "h6rcpl": 3739,
      "h1dlck": 3740,
      "hndayp": 3741,
      "hysdn": 3742,
      "humanity": 3743,
      "hung": 3744,
      "hotkey": 3745,
      "h264": 3746,
      "hystericalbl": 3747,
      "hgroup": 3748,
      "italics": 3749,
      "i2o": 3750,
      "i5k": 3751,
      "ignore": 3752,
      "ircc": 3753,
      "itco": 3754,
      "i915": 3755,
      "i810": 3756,
      "jiax1": 3757,
      "j2kg": 3758,
      "jgzc4": 3759,
      "jarpt2": 3760,
      "japanese": 3761,
      "jockey": 3762,
      "jb8nw": 3763,
      "jkaqis": 3764,
      "krb5": 3765,
      "kgdb": 3766,
      "konsole": 3767,
      "kde4": 3768,
      "keep": 3769,
      "llvgfi": 3770,
      "lduyqi": 3771,
      "limit": 3772,
      "lastindex": 3773,
      "mc13xx": 3774,
      "murr": 3775,
      "mvcihs": 3776,
      "mono": 3777,
      "menulist": 3778,
      "missioncontrol": 3779,
      "mallard": 3780,
      "mfbt": 3781,
      "m5fq2s": 3782,
      "nwjsm1": 3783,
      "nasapp": 3784,
      "numa": 3785,
      "oqlrn": 3786,
      "opus": 3787,
      "opera": 3788,
      "pdqsort": 3789,
      "post": 3790,
      "pmbus": 3791,
      "p2p": 3792,
      "pset": 3793,
      "phy": 3794,
      "pch3la": 3795,
      "pulse": 3796,
      "passthr": 3797,
      "panel": 3798,
      "plain": 3799,
      "pydoc": 3800,
      "pidgin": 3801,
      "pocket": 3802,
      "positive": 3803,
      "puppete": 3804,
      "pathtow": 3805,
      "passwd": 3806,
      "plasma": 3807,
      "paride": 3808,
      "pgothic": 3809,
      "prism2": 3810,
      "psshparser": 3811,
      "rt2j": 3812,
      "rcar": 3813,
      "renesas": 3814,
      "radio": 3815,
      "remotes": 3816,
      "roles": 3817,
      "ram4": 3818,
      "random": 3819,
      "ruyvl0": 3820,
      "rzrno6": 3821,
      "snmp6": 3822,
      "swap": 3823,
      "salt": 3824,
      "sibling": 3825,
      "sigmat": 3826,
      "sitespec": 3827,
      "select": 3828,
      "samba": 3829,
      "siano": 3830,
      "sx150x": 3831,
      "s97dnr": 3832,
      "tmac": 3833,
      "takao": 3834,
      "trie": 3835,
      "tornad": 3836,
      "tuner": 3837,
      "tps800": 3838,
      "timed": 3839,
      "tcltk": 3840,
      "tcpudp": 3841,
      "udhcp": 3842,
      "ucs2": 3843,
      "u300": 3844,
      "uthash": 3845,
      "u2fg9n": 3846,
      "voices": 3847,
      "v4l2": 3848,
      "vesa": 3849,
      "variable": 3850,
      "w6un1r": 3851,
      "wyciwy": 3852,
      "wil621": 3853,
      "watchdog": 3854,
      "w400dp": 3855,
      "xbel": 3856,
      "xdg": 3857,
      "xpconnect": 3858,
      "xvvjpi": 3859,
      "xfonts": 3860,
      "xchat": 3861,
      "xorg": 3862,
      "xubuntu": 3863,
      "xhtml": 3864,
      "xb9zrn": 3865,
      "xserver": 3866,
      "yodaoim": 3867,
      "y4e23": 3868,
      "y7zmhz": 3869,
      "ysizmx": 3870,
      "youtube": 3871,
      "yqi9g": 3872,
      "zbpq50": 3873,
      "zenity": 3874,
      "zvjetl": 3875,
      "##i6pq0": 3876,
      "##iate": 3877,
      "##bab85bef": 3878,
      "##b48d30": 3879,
      "##b0aa6d6186": 3880,
      "##b8117": 3881,
      "##e3e4": 3882,
      "##eue": 3883,
      "##e01965df": 3884,
      "##dd462d": 3885,
      "##dcab0e5a": 3886,
      "##dfa669e68315f": 3887,
      "##d57c128": 3888,
      "##rator": 3889,
      "##cff97": 3890,
      "##c91a55a1": 3891,
      "##4b53": 3892,
      "##4b0f8a51": 3893,
      "##4e2681f6": 3894,
      "##f0853c80921d4": 3895,
      "##f47601": 3896,
      "##fd97ab": 3897,
      "##f51781b5": 3898,
      "##937560d4": 3899,
      "##3ec4227d9": 3900,
      "##307ffdff": 3901,
      "##3c046603": 3902,
      "##2a0a964f8": 3903,
      "##295dca": 3904,
      "##2218ea6b2": 3905,
      "##5361f6332eb": 3906,
      "##5d4b0": 3907,
      "##ahi": 3908,
      "##a5e72d": 3909,
      "##a592a0a964f8": 3910,
      "##60039cf2": 3911,
      "##604556": 3912,
      "##6d6dd462d": 3913,
      "##6a3be3e4": 3914,
      "##8992": 3915,
      "##85e6a3be3e4": 3916,
      "##82dc8079": 3917,
      "##741a": 3918,
      "##79d0c803a8": 3919,
      "##vertexattri": 3920,
      "##hingmachine": 3921,
      "ustrperf": 3922,
      "##eragent": 3923,
      "##indness": 3924,
      "##recpp0": 3925,
      "fixtures": 3926,
      "##omaticupdate": 3927,
      "locktime": 3928,
      "54177407": 3929,
      "testprstrm": 3930,
      "linktous": 3931,
      "deab48d2": 3932,
      "deploy": 3933,
      "defrtr": 3934,
      "dejavu": 3935,
      "mousedev": 3936,
      "1324239127": 3937,
      "1331217122": 3938,
      "135786891": 3939,
      "13989": 3940,
      "heimdal": 3941,
      "hexagon": 3942,
      "information": 3943,
      "install": 3944,
      "inversesqrt": 3945,
      "indicator": 3946,
      "invalid": 3947,
      "innertext": 3948,
      "concrete": 3949,
      "conntrack": 3950,
      "capture": 3951,
      "##degeneres": 3952,
      "developer": 3953,
      "prstreams": 3954,
      "prune": 3955,
      "programs": 3956,
      "webidl2": 3957,
      "webcryptoapi": 3958,
      "adwaita": 3959,
      "libstagefri": 3960,
      "libapt": 3961,
      "libwww": 3962,
      "libglib2": 3963,
      "libavahi": 3964,
      "libusb": 3965,
      "libertas": 3966,
      "libpcrecpp0": 3967,
      "libcairomm": 3968,
      "libisofs6": 3969,
      "libhttp": 3970,
      "libintl": 3971,
      "libpoppler": 3972,
      "includedirs": 3973,
      "gentestfiles": 3974,
      "genexps": 3975,
      "generated": 3976,
      "mozalloc": 3977,
      "chunkorder": 3978,
      "changes": 3979,
      "channels": 3980,
      "cherokee": 3981,
      "##androidlib": 3982,
      "##86f285e6a3be3e4": 3983,
      "##editor": 3984,
      "community": 3985,
      "pclmul": 3986,
      "##f2256646": 3987,
      "##f2027c91a55a1": 3988,
      "reverse": 3989,
      "reachable": 3990,
      "##ce012834": 3991,
      "##sservice": 3992,
      "netcmd": 3993,
      "netfilter": 3994,
      "##apshot": 3995,
      "httpclientandroidlib": 3996,
      "pypredict": 3997,
      "sticky": 3998,
      "styleeditor": 3999,
      "imbalance": 4000,
      "00trustcdr": 4001,
      "enabled": 4002,
      "hbodocs": 4003,
      "hboondemand": 4004,
      "buckets": 4005,
      "transient": 4006,
      "methods": 4007,
      "distribution2": 4008,
      "speech": 4009,
      "thinfirm": 4010,
      "thesmashingmachine": 4011,
      "##26fa34a5": 4012,
      "applications": 4013,
      "##abf15547": 4014,
      "##32c21342ec": 4015,
      "##3250a6d6dd462d": 4016,
      "##0157a5e72d": 4017,
      "##01c67213268fa": 4018,
      "ellendegeneres": 4019,
      "scope": 4020,
      "16daf2256646": 4021,
      "16982422": 4022,
      "16x16": 4023,
      "1617377730": 4024,
      "1643844838": 4025,
      "16826726": 4026,
      "glgetvertexattri": 4027,
      "gl2tests": 4028,
      "##28802a8c9": 4029,
      "##28009ea2100e382": 4030,
      "classifier": 4031,
      "unknown": 4032,
      "unwanted": 4033,
      "##ificuseragent": 4034,
      "##482ed8cff97": 4035,
      "integrator": 4036,
      "interrupts": 4037,
      "framebuffer": 4038,
      "sudoku": 4039,
      "suautomaticupdate": 4040,
      "##ffd982dc8079": 4041,
      "24398": 4042,
      "24375": 4043,
      "24f93250a6d6dd462d": 4044,
      "addresses": 4045,
      "##241248": 4046,
      "##24c70396": 4047,
      "1586294918": 4048,
      "1891604556": 4049,
      "1872872158": 4050,
      "1821996298": 4051,
      "1827546733": 4052,
      "1709241248": 4053,
      "17823766": 4054,
      "exceptions": 4055,
      "expressions": 4056,
      "exthandler": 4057,
      "negotiate": 4058,
      "neomagic": 4059,
      "##91122271a4": 4060,
      "pnpbios": 4061,
      "emblems": 4062,
      "layfwt": 4063,
      "##07b05f0": 4064,
      "##772e4540b1": 4065,
      "##77deafcb": 4066,
      "##da41e05e9e": 4067,
      "##daa2838e27": 4068,
      "##38d48f0853c80921d4": 4069,
      "##31252dd2": 4070,
      "##220699ec0d": 4071,
      "##225e86f285e6a3be3e4": 4072,
      "lnxvideo": 4073,
      "20thirdparty": 4074,
      "2021cbede341": 4075,
      "autoscripts": 4076,
      "manipulation": 4077,
      "##39ee5a7b5": 4078,
      "##25f7482ed8cff97": 4079,
      "##2534d92b32ef": 4080,
      "pngsuite": 4081,
      "25049": 4082,
      "252x190": 4083,
      "alx0aa": 4084,
      "background": 4085,
      "iso8859": 4086,
      "min1max3b": 4087,
      "notequal": 4088,
      "uriloader": 4089,
      "##ca99d57c128": 4090,
      "##470d9295dca": 4091,
      "##99fa54c4061fe6": 4092,
      "subclass": 4093,
      "subprocess": 4094,
      "submitter": 4095,
      "substitute": 4096,
      "1523627787214": 4097,
      "mixedcontent": 4098,
      "1986430277": 4099,
      "preliminary": 4100,
      "presentation": 4101,
      "##94037e891122271a4": 4102,
      "##5e2be2691a": 4103,
      "libgweather": 4104,
      "libgssapi3": 4105,
      "200204eh": 4106,
      "dsdlle": 4107,
      "dsbxra": 4108,
      "ir4nk9": 4109,
      "optionally": 4110,
      "tmpfyi6pq0": 4111,
      "workqueue": 4112,
      "##9e38051ed8f924": 4113,
      "infraware": 4114,
      "infrastructure": 4115,
      "1168983574": 4116,
      "329506684": 4117,
      "arizona": 4118,
      "da96a8a592a0a964f8": 4119,
      "ontherecord": 4120,
      "##b0fff56d6e5": 4121,
      "##e43202da41e05e9e": 4122,
      "##d67347ffd982dc8079": 4123,
      "##c4b5c8b19ef242": 4124,
      "##fddd9b48d30": 4125,
      "##2bda0bf77deafcb": 4126,
      "##58abd84b0f8a51": 4127,
      "##a8448c4b5c8b19ef242": 4128,
      "##80b4ca99d57c128": 4129,
      "##80ca5a772e4540b1": 4130,
      "filehandle": 4131,
      "accountsservice": 4132,
      "1b516c4e43202da41e05e9e": 4133,
      "asb2364": 4134,
      "aboutperformance": 4135,
      "bluetooth": 4136,
      "current": 4137,
      "dw8b8e": 4138,
      "gstreamer0": 4139,
      "jpz0vy": 4140,
      "ksdazzle": 4141,
      "mimetypes": 4142,
      "quickstart": 4143,
      "robotrules": 4144,
      "sbkrgr": 4145,
      "skc9rd": 4146,
      "xt5plv": 4147,
      "##b9d340157a5e72d": 4148,
      "##e0e625f7482ed8cff97": 4149,
      "##edeeed24c70396": 4150,
      "##fb740060039cf2": 4151,
      "##332aae6726": 4152,
      "animationinspector": 4153,
      "libgnutls28": 4154,
      "searchplugins": 4155,
      "1204534996": 4156,
      "1969201419": 4157,
      "518778992": 4158,
      "764620106": 4159,
      "769745320": 4160,
      "814631488": 4161,
      "96166fb740060039cf2": 4162,
      "962789585": 4163,
      "azfecb": 4164,
      "customizableui": 4165,
      "duplicate": 4166,
      "dirprovider": 4167,
      "getfullyear": 4168,
      "hyphenation": 4169,
      "hypervisor": 4170,
      "iocpsupport": 4171,
      "iocpreactor": 4172,
      "larrydavid": 4173,
      "rootanalysis": 4174,
      "settings": 4175,
      "tabbrowser": 4176,
      "umbria": 4177,
      "v20140827": 4178,
      "wptserve": 4179,
      "wptrunner": 4180,
      "x2fmapper": 4181,
      "##e8f9f553c046603": 4182,
      "##d1cb89e38051ed8f924": 4183,
      "##f812cb64b53": 4184,
      "##9a96c94220699ec0d": 4185,
      "##3266b93ec4227d9": 4186,
      "##a1950e7b9d340157a5e72d": 4187,
      "##6c388e428802a8c9": 4188,
      "##1f60d4ea30c3b": 4189,
      "debhelper": 4190,
      "heapsnapshot": 4191,
      "libdotconf0": 4192,
      "librsvg2": 4193,
      "downloads": 4194,
      "bug557956": 4195,
      "1523640181723": 4196,
      "1523640756332": 4197,
      "preferences": 4198,
      "allowedcharacters": 4199,
      "aboutdebugging": 4200,
      "aboutneterror": 4201,
      "ksz8081": 4202,
      "telemetrystartup": 4203,
      "terminology": 4204,
      "treeadapters": 4205,
      "072c55eef86d": 4206,
      "048e9e39ee5a7b5": 4207,
      "1d54320901c67213268fa": 4208,
      "1081137314": 4209,
      "460824173": 4210,
      "511296391": 4211,
      "6xihqv": 4212,
      "6ac457e8f9f553c046603": 4213,
      "713920636": 4214,
      "7bc512f31252dd2": 4215,
      "759ce4699fa54c4061fe6": 4216,
      "8lw2vn": 4217,
      "8474d4307ffdff": 4218,
      "86ccfd48": 4219,
      "9uawho": 4220,
      "939462026": 4221,
      "911eb0df2027c91a55a1": 4222,
      "92d2f6299f47601": 4223,
      "aeda9f138d48f0853c80921d4": 4224,
      "bxrym0jx2s": 4225,
      "b9cx6o": 4226,
      "bb58785bc9977a3376c388e428802a8c9": 4227,
      "bm2menu": 4228,
      "cpanplus": 4229,
      "cfg80211": 4230,
      "c717397f8132c21342ec": 4231,
      "c06208dfa669e68315f": 4232,
      "d6f73abf15547": 4233,
      "dbc243a2": 4234,
      "e5959f8bab85bef": 4235,
      "ead29a79d0c803a8": 4236,
      "efbmkc": 4237,
      "e057f70cd1b0fff56d6e5": 4238,
      "f8d32b0aa6d6186": 4239,
      "guidepdf": 4240,
      "gzjmzu": 4241,
      "hystericalblindness": 4242,
      "jiax1c": 4243,
      "j2kgwm": 4244,
      "jgzc4v": 4245,
      "jb8nwp": 4246,
      "lastindexof": 4247,
      "mc13xxx": 4248,
      "murrine": 4249,
      "oqlrny": 4250,
      "passthru": 4251,
      "puppeteer": 4252,
      "pathtowar": 4253,
      "rt2jv2": 4254,
      "sigmatel": 4255,
      "sitespecificuseragent": 4256,
      "tornado": 4257,
      "tps80031": 4258,
      "wyciwyg": 4259,
      "wil6210": 4260,
      "yodaoimages": 4261,
      "y4e23s": 4262,
      "yqi9go": 4263,
      "##b8117558": 4264,
      "##e01965df3ed": 4265,
      "##dcab0e5ae0fc47da7": 4266,
      "##4e2681f607b05f0": 4267,
      "##fd97ab225e86f285e6a3be3e4": 4268,
      "##f51781b5a8448c4b5c8b19ef242": 4269,
      "##937560d4dcab0e5ae0fc47da7": 4270,
      "##2218ea6b2e01965df3ed": 4271,
      "deab48d228009ea2100e382": 4272,
      "1357868912": 4273,
      "libstagefright": 4274,
      "##ce0128345361f6332eb": 4275,
      "00trustcdrom": 4276,
      "1698242251": 4277,
      "glgetvertexattrib": 4278,
      "suautomaticupdatealert": 4279,
      "24f93250a6d6dd462d58abd84b0f8a51": 4280,
      "1782376651": 4281,
      "##daa2838e274e2681f607b05f0": 4282,
      "##2534d92b32ef1f60d4ea30c3b": 4283,
      "##5e2be2691a470d9295dca": 4284,
      "da96a8a592a0a964f8fddd9b48d30": 4285,
      "##d67347ffd982dc807926fa34a5": 4286,
      "##80b4ca99d57c1285d4b0": 4287,
      "##80ca5a772e4540b1334": 4288,
      "1b516c4e43202da41e05e9e94037e891122271a4": 4289,
      "##edeeed24c70396ff0": 4290,
      "96166fb740060039cf29a96c94220699ec0d": 4291,
      "##3266b93ec4227d9332aae6726": 4292,
      "##a1950e7b9d340157a5e72d2b": 4293,
      "048e9e39ee5a7b52534d92b32ef1f60d4ea30c3b": 4294,
      "1d54320901c67213268fae0e625f7482ed8cff97": 4295,
      "6ac457e8f9f553c04660380ca5a772e4540b1334": 4296,
      "7bc512f31252dd2daa2838e274e2681f607b05f0": 4297,
      "759ce4699fa54c4061fe6ce0128345361f6332eb": 4298,
      "8474d4307ffdffd67347ffd982dc807926fa34a5": 4299,
      "911eb0df2027c91a55a180b4ca99d57c1285d4b0": 4300,
      "92d2f6299f47601fd97ab225e86f285e6a3be3e4": 4301,
      "aeda9f138d48f0853c80921d42bda0bf77deafcb": 4302,
      "bb58785bc9977a3376c388e428802a8c9517eb96": 4303,
      "c717397f8132c21342ec2218ea6b2e01965df3ed": 4304,
      "c06208dfa669e68315f5e2be2691a470d9295dca": 4305,
      "d6f73abf15547f51781b5a8448c4b5c8b19ef242": 4306,
      "e5959f8bab85bef3266b93ec4227d9332aae6726": 4307,
      "ead29a79d0c803a8a1950e7b9d340157a5e72d2b": 4308,
      "e057f70cd1b0fff56d6e5d1cb89e38051ed8f924": 4309,
      "f8d32b0aa6d6186937560d4dcab0e5ae0fc47da7": 4310,
      "deab48d228009ea2100e382edeeed24c70396ff0": 4311,
      "24f93250a6d6dd462d58abd84b0f8a51b8117558": 4312,
      "da96a8a592a0a964f8fddd9b48d30f812cb64b53": 4313,
      "96166fb740060039cf29a96c94220699ec0d741a": 4314
    }
  }
}